{
  "version": "1.0",
  "truncation": null,
  "padding": null,
  "added_tokens": [
    {
      "id": 0,
      "content": "<pad>",
      "single_word": false,
      "lstrip": false,
      "rstrip": false,
      "normalized": false,
      "special": true
    },
    {
      "id": 1,
      "content": "<bos>",
      "single_word": false,
      "lstrip": false,
      "rstrip": false,
      "normalized": false,
      "special": true
    },
    {
      "id": 2,
      "content": "<eos>",
      "single_word": false,
      "lstrip": false,
      "rstrip": false,
      "normalized": false,
      "special": true
    },
    {
      "id": 3,
      "content": "<unk>",
      "single_word": false,
      "lstrip": false,
      "rstrip": false,
      "normalized": false,
      "special": true
    }
  ],
  "normalizer": null,
  "pre_tokenizer": {
    "type": "ByteLevel",
    "add_prefix_space": false,
    "trim_offsets": true,
    "use_regex": true
  },
  "post_processor": null,
  "decoder": {
    "type": "ByteLevel",
    "add_prefix_space": true,
    "trim_offsets": true,
    "use_regex": true
  },
  "model": {
    "type": "BPE",
    "dropout": null,
    "unk_token": "<unk>",
    "continuing_subword_prefix": null,
    "end_of_word_suffix": null,
    "fuse_unk": false,
    "byte_fallback": false,
    "ignore_merges": false,
    "vocab": {
      "<pad>": 0,
      "<bos>": 1,
      "<eos>": 2,
      "<unk>": 3,
      "!": 4,
      "\"": 5,
      "#": 6,
      "$": 7,
      "%": 8,
      "&": 9,
      "'": 10,
      "(": 11,
      ")": 12,
      "*": 13,
      "+": 14,
      ",": 15,
      "-": 16,
      ".": 17,
      "/": 18,
      "0": 19,
      "1": 20,
      "2": 21,
      "3": 22,
      "4": 23,
      "5": 24,
      "6": 25,
      "7": 26,
      "8": 27,
      "9": 28,
      ":": 29,
      ";": 30,
      "<": 31,
      "=": 32,
      ">": 33,
      "?": 34,
      "@": 35,
      "A": 36,
      "B": 37,
      "C": 38,
      "D": 39,
      "E": 40,
      "F": 41,
      "G": 42,
      "H": 43,
      "I": 44,
      "J": 45,
      "K": 46,
      "L": 47,
      "M": 48,
      "N": 49,
      "O": 50,
      "P": 51,
      "Q": 52,
      "R": 53,
      "S": 54,
      "T": 55,
      "U": 56,
      "V": 57,
      "W": 58,
      "X": 59,
      "Y": 60,
      "Z": 61,
      "[": 62,
      "\\": 63,
      "]": 64,
      "^": 65,
      "_": 66,
      "`": 67,
      "a": 68,
      "b": 69,
      "c": 70,
      "d": 71,
      "e": 72,
      "f": 73,
      "g": 74,
      "h": 75,
      "i": 76,
      "j": 77,
      "k": 78,
      "l": 79,
      "m": 80,
      "n": 81,
      "o": 82,
      "p": 83,
      "q": 84,
      "r": 85,
      "s": 86,
      "t": 87,
      "u": 88,
      "v": 89,
      "w": 90,
      "x": 91,
      "y": 92,
      "z": 93,
      "{": 94,
      "|": 95,
      "}": 96,
      "~": 97,
      "¡": 98,
      "¢": 99,
      "£": 100,
      "¤": 101,
      "¥": 102,
      "¦": 103,
      "§": 104,
      "¨": 105,
      "©": 106,
      "ª": 107,
      "«": 108,
      "¬": 109,
      "®": 110,
      "¯": 111,
      "°": 112,
      "±": 113,
      "²": 114,
      "³": 115,
      "´": 116,
      "µ": 117,
      "¶": 118,
      "·": 119,
      "¸": 120,
      "¹": 121,
      "º": 122,
      "»": 123,
      "¼": 124,
      "½": 125,
      "¾": 126,
      "¿": 127,
      "À": 128,
      "Á": 129,
      "Â": 130,
      "Ã": 131,
      "Ä": 132,
      "Å": 133,
      "Æ": 134,
      "Ç": 135,
      "È": 136,
      "É": 137,
      "Ê": 138,
      "Ë": 139,
      "Ì": 140,
      "Í": 141,
      "Î": 142,
      "Ï": 143,
      "Ð": 144,
      "Ñ": 145,
      "Ò": 146,
      "Ó": 147,
      "Ô": 148,
      "Õ": 149,
      "Ö": 150,
      "×": 151,
      "Ø": 152,
      "Ù": 153,
      "Ú": 154,
      "Û": 155,
      "Ü": 156,
      "Ý": 157,
      "Þ": 158,
      "ß": 159,
      "à": 160,
      "á": 161,
      "â": 162,
      "ã": 163,
      "ä": 164,
      "å": 165,
      "æ": 166,
      "ç": 167,
      "è": 168,
      "é": 169,
      "ê": 170,
      "ë": 171,
      "ì": 172,
      "í": 173,
      "î": 174,
      "ï": 175,
      "ð": 176,
      "ñ": 177,
      "ò": 178,
      "ó": 179,
      "ô": 180,
      "õ": 181,
      "ö": 182,
      "÷": 183,
      "ø": 184,
      "ù": 185,
      "ú": 186,
      "û": 187,
      "ü": 188,
      "ý": 189,
      "þ": 190,
      "ÿ": 191,
      "Ā": 192,
      "ā": 193,
      "Ă": 194,
      "ă": 195,
      "Ą": 196,
      "ą": 197,
      "Ć": 198,
      "ć": 199,
      "Ĉ": 200,
      "ĉ": 201,
      "Ċ": 202,
      "ċ": 203,
      "Č": 204,
      "č": 205,
      "Ď": 206,
      "ď": 207,
      "Đ": 208,
      "đ": 209,
      "Ē": 210,
      "ē": 211,
      "Ĕ": 212,
      "ĕ": 213,
      "Ė": 214,
      "ė": 215,
      "Ę": 216,
      "ę": 217,
      "Ě": 218,
      "ě": 219,
      "Ĝ": 220,
      "ĝ": 221,
      "Ğ": 222,
      "ğ": 223,
      "Ġ": 224,
      "ġ": 225,
      "Ģ": 226,
      "ģ": 227,
      "Ĥ": 228,
      "ĥ": 229,
      "Ħ": 230,
      "ħ": 231,
      "Ĩ": 232,
      "ĩ": 233,
      "Ī": 234,
      "ī": 235,
      "Ĭ": 236,
      "ĭ": 237,
      "Į": 238,
      "į": 239,
      "İ": 240,
      "ı": 241,
      "Ĳ": 242,
      "ĳ": 243,
      "Ĵ": 244,
      "ĵ": 245,
      "Ķ": 246,
      "ķ": 247,
      "ĸ": 248,
      "Ĺ": 249,
      "ĺ": 250,
      "Ļ": 251,
      "ļ": 252,
      "Ľ": 253,
      "ľ": 254,
      "Ŀ": 255,
      "ŀ": 256,
      "Ł": 257,
      "ł": 258,
      "Ń": 259,
      "Ġa": 260,
      "in": 261,
      "Ġt": 262,
      "re": 263,
      "on": 264,
      "he": 265,
      "at": 266,
      "en": 267,
      "Ġs": 268,
      "Ġthe": 269,
      "er": 270,
      "ed": 271,
      "Ġc": 272,
      "Ġo": 273,
      "Ġin": 274,
      "al": 275,
      "ti": 276,
      "Ġp": 277,
      "Ġw": 278,
      "es": 279,
      "Ġan": 280,
      "or": 281,
      "Ġ(": 282,
      "Ġm": 283,
      "Ġf": 284,
      "Ġof": 285,
      "an": 286,
      "it": 287,
      "is": 288,
      "Ġd": 289,
      "ro": 290,
      "Ġe": 291,
      "Ġand": 292,
      "ing": 293,
      "Ġb": 294,
      "le": 295,
      "ic": 296,
      "ion": 297,
      "ar": 298,
      "as": 299,
      "Ġre": 300,
      "el": 301,
      "ig": 302,
      "ent": 303,
      "Ġto": 304,
      "ation": 305,
      "Ġ2": 306,
      "Ġ)": 307,
      "us": 308,
      "Ġn": 309,
      "Ġth": 310,
      "ure": 311,
      "ĠT": 312,
      "ul": 313,
      "ec": 314,
      "tion": 315,
      "ac": 316,
      "Ġal": 317,
      "om": 318,
      "ĠF": 319,
      "im": 320,
      "Ġl": 321,
      "Ġ1": 322,
      "ur": 323,
      "ere": 324,
      "et": 325,
      "ol": 326,
      "ĠC": 327,
      "ot": 328,
      "ly": 329,
      "ĠS": 330,
      "ĠA": 331,
      "Ġh": 332,
      "ith": 333,
      "un": 334,
      "id": 335,
      "os": 336,
      "Ġg": 337,
      "igure": 338,
      "Ġfor": 339,
      "Ġwith": 340,
      "Ġ20": 341,
      "Ġcon": 342,
      "ut": 343,
      "res": 344,
      "âĢ": 345,
      "ow": 346,
      "ell": 347,
      "Ġex": 348,
      "ter": 349,
      "if": 350,
      "ce": 351,
      "tr": 352,
      "ve": 353,
      "il": 354,
      "am": 355,
      "Ġthat": 356,
      "Ġpro": 357,
      "Ġet": 358,
      "Ġv": 359,
      ".,": 360,
      "Ġsu": 361,
      "Ġis": 362,
      "ated": 363,
      "Ġas": 364,
      "ĠP": 365,
      "ĠFigure": 366,
      "ĠI": 367,
      "od": 368,
      "ment": 369,
      "Ġwere": 370,
      "Ġ).": 371,
      "ĠM": 372,
      "ain": 373,
      "ts": 374,
      "ag": 375,
      "oc": 376,
      "pp": 377,
      "ĠD": 378,
      "Ġcell": 379,
      "Ġon": 380,
      "ĠR": 381,
      "uc": 382,
      "ate": 383,
      "Ġst": 384,
      "Ġ201": 385,
      "ĠThe": 386,
      "se": 387,
      "Ġwas": 388,
      "ted": 389,
      "Ġac": 390,
      "rom": 391,
      "Ġby": 392,
      "Ġexp": 393,
      "um": 394,
      "ab": 395,
      "ĠB": 396,
      "ity": 397,
      "ĠH": 398,
      "ri": 399,
      "qu": 400,
      "ver": 401,
      "her": 402,
      "te": 403,
      "Ġres": 404,
      "ir": 405,
      "Ġbe": 406,
      "00": 407,
      "ys": 408,
      "tic": 409,
      "Ġare": 410,
      "ĠG": 411,
      "Ġat": 412,
      "ran": 413,
      "Ġ3": 414,
      "Ġcom": 415,
      "Ġor": 416,
      "ad": 417,
      "ĠE": 418,
      "op": 419,
      "Ġfrom": 420,
      "ĠN": 421,
      "Ġus": 422,
      "ap": 423,
      "ĠW": 424,
      "Ġsh": 425,
      "ress": 426,
      "Ġ;": 427,
      "Ġde": 428,
      "ib": 429,
      "Ġgen": 430,
      "Ġne": 431,
      "og": 432,
      ").": 433,
      "di": 434,
      "ant": 435,
      "Ġcells": 436,
      "Ġcomp": 437,
      "iz": 438,
      "Ġse": 439,
      "ay": 440,
      "ine": 441,
      "ĠL": 442,
      "pl": 443,
      "Ġr": 444,
      "und": 445,
      "Ġwe": 446,
      "igh": 447,
      "Ġch": 448,
      "red": 449,
      "ff": 450,
      "tiv": 451,
      "Ġ5": 452,
      "Ġim": 453,
      "Ġ4": 454,
      "Ġsp": 455,
      "NA": 456,
      "ign": 457,
      "Ġwh": 458,
      "lement": 459,
      "ons": 460,
      "ous": 461,
      "Ġdis": 462,
      "orm": 463,
      "st": 464,
      "ati": 465,
      "ding": 466,
      "Ġsupp": 467,
      "lu": 468,
      "ase": 469,
      "yp": 470,
      "ore": 471,
      "ess": 472,
      "âĢĶ": 473,
      "Ġper": 474,
      "Ġ0": 475,
      "Ġen": 476,
      "eren": 477,
      "Ġle": 478,
      "Ġnot": 479,
      "ch": 480,
      "ata": 481,
      "feren": 482,
      "ific": 483,
      "ally": 484,
      "ence": 485,
      "âĢĵ": 486,
      "rans": 487,
      "Ġshow": 488,
      "ations": 489,
      "ĠIn": 490,
      "Ġ=": 491,
      "Ġ,": 492,
      "Ġinc": 493,
      "ers": 494,
      "ens": 495,
      "tions": 496,
      "vel": 497,
      "em": 498,
      "ich": 499,
      "th": 500,
      "Ġthis": 501,
      "Ġco": 502,
      "Ġdif": 503,
      "ach": 504,
      "de": 505,
      "Ġtrans": 506,
      "duc": 507,
      "est": 508,
      "Ġexpress": 509,
      "Ġcont": 510,
      "Ġsupplement": 511,
      "),": 512,
      "ther": 513,
      "ĠO": 514,
      "Ġmod": 515,
      "Ġrep": 516,
      "ect": 517,
      "Ġsign": 518,
      "Ġdata": 519,
      "up": 520,
      "Ġad": 521,
      "bs": 522,
      "figure": 523,
      "ors": 524,
      "ĠÎ": 525,
      "lec": 526,
      "Ġanal": 527,
      "ip": 528,
      "etw": 529,
      "Ġk": 530,
      "Ġmic": 531,
      "age": 532,
      "Ġdifferen": 533,
      "ĠK": 534,
      "vi": 535,
      "ved": 536,
      "ates": 537,
      "form": 538,
      "ph": 539,
      "Ġusing": 540,
      "Ġreg": 541,
      "Ġpre": 542,
      "Ġstr": 543,
      "ies": 544,
      "Ġpl": 545,
      "enti": 546,
      "ug": 547,
      "end": 548,
      "so": 549,
      "tein": 550,
      "Ġ200": 551,
      "âĢĻ": 552,
      "Ġint": 553,
      "Ġpar": 554,
      "ge": 555,
      "ight": 556,
      "Ġneur": 557,
      "Ġinter": 558,
      "Ġcl": 559,
      "Ġit": 560,
      "ical": 561,
      "Ġ6": 562,
      "Ġwhich": 563,
      "Ġresp": 564,
      "een": 565,
      "resent": 566,
      "Ġwhe": 567,
      "ros": 568,
      "Ġ),": 569,
      "tive": 570,
      "pt": 571,
      "vid": 572,
      "ely": 573,
      "ub": 574,
      "Ġpos": 575,
      "etween": 576,
      "uld": 577,
      "Ġcor": 578,
      "cri": 579,
      "Ġâ": 580,
      "Ġbetween": 581,
      "ĠTh": 582,
      "ĠV": 583,
      "Ġass": 584,
      "low": 585,
      "unc": 586,
      "ary": 587,
      "Ġhe": 588,
      "Ġactiv": 589,
      "als": 590,
      "Ġme": 591,
      "ative": 592,
      "and": 593,
      "tim": 594,
      "ple": 595,
      "act": 596,
      "Ġ10": 597,
      "Ġprotein": 598,
      "ĠÂ": 599,
      "enc": 600,
      "yn": 601,
      "Ġrec": 602,
      "Ġanalys": 603,
      "ak": 604,
      "Ġeach": 605,
      "ance": 606,
      "ory": 607,
      "ist": 608,
      "ong": 609,
      "ents": 610,
      "rol": 611,
      "ome": 612,
      "Ġcons": 613,
      "ased": 614,
      "ue": 615,
      "erm": 616,
      "Ġsam": 617,
      "able": 618,
      "ĠWe": 619,
      "ari": 620,
      "Ġexpression": 621,
      "Ġmodel": 622,
      "ort": 623,
      "Ġtim": 624,
      "wo": 625,
      "Ġmut": 626,
      "ack": 627,
      "Ġtr": 628,
      "Ġeff": 629,
      "Ġthese": 630,
      "Ġdet": 631,
      "Ġused": 632,
      "Ġun": 633,
      "Ġdi": 634,
      "ulation": 635,
      "ied": 636,
      "ĠU": 637,
      "ular": 638,
      "erim": 639,
      "Ġmet": 640,
      "ected": 641,
      "Ġind": 642,
      "ry": 643,
      "ep": 644,
      "Ġ-": 645,
      "ound": 646,
      "olog": 647,
      "Ġph": 648,
      "Ġcan": 649,
      "Ġha": 650,
      "Ġtwo": 651,
      "Ġapp": 652,
      "ud": 653,
      "ia": 654,
      "ast": 655,
      "all": 656,
      "ik": 657,
      "Ġ7": 658,
      "Ġresul": 659,
      "Ġalso": 660,
      "Ġgro": 661,
      "Ġchan": 662,
      "ree": 663,
      "Ġmo": 664,
      "ution": 665,
      "Ġsub": 666,
      "Ġexperim": 667,
      "ual": 668,
      "Ġab": 669,
      "Ġmice": 670,
      "Ġanalysis": 671,
      "Ġall": 672,
      "ating": 673,
      "Ġindic": 674,
      "arg": 675,
      "10": 676,
      "20": 677,
      "ile": 678,
      "ture": 679,
      "ype": 680,
      "ugh": 681,
      "our": 682,
      "ĠThis": 683,
      "ox": 684,
      "Ġcontrol": 685,
      "Ġspec": 686,
      "ard": 687,
      "Ġsim": 688,
      "Ġ+": 689,
      "rec": 690,
      "oth": 691,
      "ill": 692,
      "Ġcol": 693,
      "Ġhave": 694,
      "han": 695,
      "Ġ.": 696,
      "Ġbut": 697,
      "Ġpat": 698,
      "ass": 699,
      "ial": 700,
      "fter": 701,
      "yl": 702,
      "ater": 703,
      "Ġincre": 704,
      "ost": 705,
      "Ġsc": 706,
      "pend": 707,
      "ber": 708,
      "ized": 709,
      "ond": 710,
      "ren": 711,
      "Ġanti": 712,
      "Ġlevel": 713,
      "hed": 714,
      "Ġimp": 715,
      "Ġobs": 716,
      "Ġneurons": 717,
      "Ġro": 718,
      "FP": 719,
      "inding": 720,
      "ues": 721,
      "uring": 722,
      "ility": 723,
      "Ġam": 724,
      "ection": 725,
      "Ġobser": 726,
      "gg": 727,
      "Ġover": 728,
      "dition": 729,
      "ym": 730,
      "ide": 731,
      "unction": 732,
      "Ġmin": 733,
      "Ġgene": 734,
      "Ġtime": 735,
      "ould": 736,
      "cent": 737,
      "Ġev": 738,
      "ting": 739,
      "Ġqu": 740,
      "Ġsignific": 741,
      "iv": 742,
      "one": 743,
      "ose": 744,
      "ite": 745,
      "ained": 746,
      "out": 747,
      "cl": 748,
      "Ġvari": 749,
      "ition": 750,
      "Ġrel": 751,
      "entif": 752,
      "Ġgenes": 753,
      "Ġdifferent": 754,
      "Ġdes": 755,
      "ants": 756,
      "Ġnum": 757,
      "Ġother": 758,
      "Ġval": 759,
      "hes": 760,
      "gen": 761,
      "Ġperform": 762,
      "Ġacc": 763,
      "duced": 764,
      "Ġinf": 765,
      "ock": 766,
      "aining": 767,
      "Ġar": 768,
      "Ġ19": 769,
      "Ġboth": 770,
      "oci": 771,
      "RNA": 772,
      "Ġno": 773,
      "ross": 774,
      "quenc": 775,
      "Ġtheir": 776,
      "edi": 777,
      "Ġhigh": 778,
      "yt": 779,
      "hib": 780,
      "ects": 781,
      "ĠAn": 782,
      "AT": 783,
      "Ġshown": 784,
      "Ġfol": 785,
      "Ġund": 786,
      "ĠâĪ": 787,
      "Ġid": 788,
      "ature": 789,
      "Ġmore": 790,
      "Ġduring": 791,
      "trib": 792,
      "ization": 793,
      "Ġinto": 794,
      "Ġsignificant": 795,
      "ared": 796,
      "ĠFor": 797,
      "Ġ8": 798,
      "Ġgener": 799,
      "anti": 800,
      "ĠTo": 801,
      "Ġbl": 802,
      "own": 803,
      "mb": 804,
      "ace": 805,
      "Ġone": 806,
      "iss": 807,
      "Ġactivity": 808,
      "Ġafter": 809,
      "AC": 810,
      "ix": 811,
      "ft": 812,
      "ages": 813,
      "ogen": 814,
      "Ġrepresent": 815,
      "AG": 816,
      "ined": 817,
      "ions": 818,
      "Ġaut": 819,
      "Ġfunction": 820,
      "Ġthan": 821,
      "Ġman": 822,
      "tical": 823,
      "ulated": 824,
      "tern": 825,
      "Ġunder": 826,
      "inal": 827,
      "ays": 828,
      "ail": 829,
      "ores": 830,
      "iti": 831,
      "CR": 832,
      "Ġy": 833,
      "ered": 834,
      "Ġmeas": 835,
      "per": 836,
      "tem": 837,
      "**": 838,
      "oin": 839,
      "hen": 840,
      "Ġmeth": 841,
      "Ġour": 842,
      "plic": 843,
      "ew": 844,
      "Ġloc": 845,
      "tal": 846,
      "mo": 847,
      "ark": 848,
      "ive": 849,
      "pendent": 850,
      "ces": 851,
      "ans": 852,
      "aus": 853,
      "ork": 854,
      "000": 855,
      "lex": 856,
      "Ġdec": 857,
      "ucle": 858,
      "ale": 859,
      "vious": 860,
      "Ġline": 861,
      "are": 862,
      "Ġdo": 863,
      "Ġsugg": 864,
      "Ġout": 865,
      "action": 866,
      "cess": 867,
      "ĠAl": 868,
      "Ġresults": 869,
      "sp": 870,
      "mun": 871,
      "ded": 872,
      "Ġform": 873,
      "Ġmeasure": 874,
      "ever": 875,
      "Ġnumber": 876,
      "ains": 877,
      "ind": 878,
      "ĠÂµ": 879,
      "ĠâĢ": 880,
      "Ġbi": 881,
      "Ġ9": 882,
      "arget": 883,
      "udy": 884,
      "ĠmM": 885,
      "ĠÎ¼": 886,
      "Ġfollow": 887,
      "11": 888,
      "Ġonly": 889,
      "rel": 890,
      "ĠRNA": 891,
      "ize": 892,
      "Ġhr": 893,
      "Ġobserved": 894,
      "Ġsignal": 895,
      "bod": 896,
      "Ġup": 897,
      "gr": 898,
      "Ġtre": 899,
      "Ġstudy": 900,
      "ilar": 901,
      "Ġlevels": 902,
      "ves": 903,
      "ĠDNA": 904,
      "rim": 905,
      "Ġidentif": 906,
      "dependent": 907,
      "ĠÂ±": 908,
      "Ġfr": 909,
      "Ġi": 910,
      "Ġstim": 911,
      "ism": 912,
      "Ġperformed": 913,
      "ments": 914,
      "Ġmem": 915,
      "cept": 916,
      "ingle": 917,
      "ex": 918,
      "Ġthen": 919,
      "fore": 920,
      "Ġhas": 921,
      "Ġdef": 922,
      "Ġprevious": 923,
      "par": 924,
      "Ġtest": 925,
      "ines": 926,
      "ĠSc": 927,
      "ystem": 928,
      "onse": 929,
      "Ġlow": 930,
      "Ġthree": 931,
      "velop": 932,
      "Ġinclu": 933,
      "ob": 934,
      "Ġbeen": 935,
      "Ġsyn": 936,
      "Ġtranscri": 937,
      "hibit": 938,
      "por": 939,
      "Ġins": 940,
      "Ġag": 941,
      "Ġ2018": 942,
      "50": 943,
      "Ġthere": 944,
      "Ġmay": 945,
      "atic": 946,
      "val": 947,
      "12": 948,
      "Â°": 949,
      "Ġexperiments": 950,
      "Ġcur": 951,
      "Ġfir": 952,
      "old": 953,
      "Ġwhere": 954,
      "ax": 955,
      "hem": 956,
      "ouse": 957,
      "ption": 958,
      "tin": 959,
      "owever": 960,
      "divid": 961,
      "Ġcould": 962,
      "ired": 963,
      "Ġ2017": 964,
      "RI": 965,
      "Ġstruc": 966,
      "Ġtarget": 967,
      "Ġpresent": 968,
      "ient": 969,
      "ĠâĪĴ": 970,
      "reg": 971,
      "onal": 972,
      "urther": 973,
      "rough": 974,
      "ha": 975,
      "olution": 976,
      "lic": 977,
      "Ġdescri": 978,
      "Ġwithin": 979,
      "Ġauth": 980,
      "CC": 981,
      "Ġwhen": 982,
      "ases": 983,
      "ges": 984,
      "Ġnon": 985,
      "duction": 986,
      "Ġsingle": 987,
      "Ġfound": 988,
      "ĠâĢĺ": 989,
      "ĠJ": 990,
      "Ġgroup": 991,
      "Ġmon": 992,
      "ric": 993,
      "Ġsame": 994,
      "Ġconf": 995,
      "ars": 996,
      "Ġsur": 997,
      "Ġresponse": 998,
      "ability": 999,
      "Ġend": 1000,
      "Ġwould": 1001,
      "Ġmul": 1002,
      "Ġmethod": 1003,
      "ne": 1004,
      "Ġ2016": 1005,
      "Ġpath": 1006,
      "Ġits": 1007,
      "les": 1008,
      "Ġauthors": 1009,
      "acter": 1010,
      "Ġcal": 1011,
      "ild": 1012,
      "Ġdevelop": 1013,
      "Ġob": 1014,
      "Ġproteins": 1015,
      "ensity": 1016,
      "ples": 1017,
      "Ġnucle": 1018,
      "AP": 1019,
      "Ġcompar": 1020,
      "SC": 1021,
      "Ġdom": 1022,
      "Ġeffect": 1023,
      "Ġindivid": 1024,
      "luores": 1025,
      "Ġbr": 1026,
      "bed": 1027,
      "Ġexam": 1028,
      "Ġsec": 1029,
      "ĠZ": 1030,
      "ible": 1031,
      "Ġgrow": 1032,
      "Ġ2015": 1033,
      "itive": 1034,
      "Ġmean": 1035,
      "Ġsimilar": 1036,
      "Ġspecific": 1037,
      "Ġaddition": 1038,
      "Ġdeterm": 1039,
      "Ġacross": 1040,
      "Ġbinding": 1041,
      "udi": 1042,
      "uman": 1043,
      "Ġassoci": 1044,
      "aph": 1045,
      "Ġpartic": 1046,
      "echan": 1047,
      "Ġcompared": 1048,
      "Ġappro": 1049,
      "cc": 1050,
      "ites": 1051,
      "Ġpred": 1052,
      "tively": 1053,
      "Ġexperiment": 1054,
      "Ġwell": 1055,
      "Ġkn": 1056,
      "yc": 1057,
      "Ġsystem": 1058,
      "Ġpol": 1059,
      "Ġthrough": 1060,
      "Ġpop": 1061,
      "bran": 1062,
      "Ġpoin": 1063,
      "Ġran": 1064,
      "truc": 1065,
      "14": 1066,
      "Ġgl": 1067,
      "ood": 1068,
      "Ġmechan": 1069,
      "amet": 1070,
      "ĠCD": 1071,
      "Ġprocess": 1072,
      "Ġset": 1073,
      "Ġ2019": 1074,
      "ward": 1075,
      "asm": 1076,
      "Ġthey": 1077,
      "ological": 1078,
      "rect": 1079,
      "Ġmulti": 1080,
      "fer": 1081,
      "Ġfact": 1082,
      "vers": 1083,
      "els": 1084,
      "Ġes": 1085,
      "Ġcalc": 1086,
      "ĠWT": 1087,
      "Ġprovid": 1088,
      "05": 1089,
      "ĠâĢĵ": 1090,
      "osph": 1091,
      "ression": 1092,
      "Ġsuch": 1093,
      "Ġtri": 1094,
      "fic": 1095,
      "centr": 1096,
      "ormal": 1097,
      "Ġ199": 1098,
      "Ġprim": 1099,
      "der": 1100,
      "ise": 1101,
      "Ġcomplex": 1102,
      "rent": 1103,
      "16": 1104,
      "ypes": 1105,
      "ential": 1106,
      "Ġ2014": 1107,
      "Ġstudi": 1108,
      "body": 1109,
      "Ġanim": 1110,
      "ĠQ": 1111,
      "13": 1112,
      "tro": 1113,
      "way": 1114,
      "CT": 1115,
      "Ġfe": 1116,
      "GFP": 1117,
      "Ġrepor": 1118,
      "Ġstructure": 1119,
      "Ġquanti": 1120,
      "ĠAs": 1121,
      "Ġfl": 1122,
      "Ġfirst": 1123,
      "til": 1124,
      "EM": 1125,
      "uster": 1126,
      "av": 1127,
      "ĠCh": 1128,
      "Ġconcentr": 1129,
      "ĠHowever": 1130,
      "ust": 1131,
      "Ġtem": 1132,
      "ĠSt": 1133,
      "Ġvis": 1134,
      "Ġgr": 1135,
      "formation": 1136,
      "Ġselec": 1137,
      "Ġmedi": 1138,
      "Ġso": 1139,
      "ike": 1140,
      "Ġhyp": 1141,
      "Ġpot": 1142,
      "havi": 1143,
      "atory": 1144,
      "ified": 1145,
      "Ġrequ": 1146,
      "Ġemb": 1147,
      "Ġlab": 1148,
      "Ġpredic": 1149,
      "reen": 1150,
      "Ġcar": 1151,
      "ĠY": 1152,
      "its": 1153,
      "ife": 1154,
      "15": 1155,
      "Ġj": 1156,
      "to": 1157,
      "Ġcent": 1158,
      "Ġdistrib": 1159,
      "ull": 1160,
      "bin": 1161,
      "ĠThese": 1162,
      "ang": 1163,
      "ink": 1164,
      "Ġchanges": 1165,
      "Ġpres": 1166,
      "resp": 1167,
      "quence": 1168,
      "ish": 1169,
      "trac": 1170,
      "cence": 1171,
      "75": 1172,
      "Ġpa": 1173,
      "ads": 1174,
      "Ġâģ": 1175,
      "Ġdescribed": 1176,
      "Ġsuggest": 1177,
      "Ġmicro": 1178,
      "Ġimmun": 1179,
      "eng": 1180,
      "Ġprom": 1181,
      "erg": 1182,
      "Ġdr": 1183,
      "Ġmembran": 1184,
      "round": 1185,
      "Ġsens": 1186,
      "ĠIm": 1187,
      "ording": 1188,
      "18": 1189,
      "br": 1190,
      "ulations": 1191,
      "MP": 1192,
      "Ġsequenc": 1193,
      "usion": 1194,
      "sour": 1195,
      "Ġrespec": 1196,
      "Ġcorrel": 1197,
      "uff": 1198,
      "Ġrate": 1199,
      "Ġbehavi": 1200,
      "ough": 1201,
      "source": 1202,
      "row": 1203,
      "type": 1204,
      "Ġhuman": 1205,
      "Ġdisc": 1206,
      "pos": 1207,
      "Ġ2013": 1208,
      "Ġstudies": 1209,
      "ning": 1210,
      "och": 1211,
      "Ġeffects": 1212,
      "54": 1213,
      "AR": 1214,
      "ither": 1215,
      "Ġop": 1216,
      "Ġprob": 1217,
      "Î±": 1218,
      "ots": 1219,
      "Ġaff": 1220,
      "Ġsamples": 1221,
      "Ġvalues": 1222,
      "Ġmark": 1223,
      "Ġembry": 1224,
      "Ġexpl": 1225,
      "oun": 1226,
      "upp": 1227,
      "oph": 1228,
      "ene": 1229,
      "Ġaver": 1230,
      "Ġmost": 1231,
      "Ġmutant": 1232,
      "yz": 1233,
      "Ġ[": 1234,
      "ÃĹ": 1235,
      "Ġimport": 1236,
      "Ġrem": 1237,
      "put": 1238,
      "atis": 1239,
      "oid": 1240,
      "ult": 1241,
      "Ġrespons": 1242,
      "Ġincreased": 1243,
      "Ġwild": 1244,
      "ium": 1245,
      "Ġz": 1246,
      "Ġâģ¢": 1247,
      "tained": 1248,
      "Ġreplic": 1249,
      "Ġsubs": 1250,
      "Ġcluster": 1251,
      "Ġmouse": 1252,
      "ok": 1253,
      "Ġwhile": 1254,
      "ole": 1255,
      "spec": 1256,
      "Ġ100": 1257,
      "ology": 1258,
      "Ġwhether": 1259,
      "Ġindicated": 1260,
      "Ġfluores": 1261,
      "Ġsm": 1262,
      "Ġmain": 1263,
      "tex": 1264,
      "IP": 1265,
      "Ġdifferenti": 1266,
      "Ġnormal": 1267,
      "Ġ2020": 1268,
      "omes": 1269,
      "25": 1270,
      "Ġfurther": 1271,
      "amm": 1272,
      "21": 1273,
      "Ġactivation": 1274,
      "TP": 1275,
      "Ġposs": 1276,
      "ct": 1277,
      "Ġlo": 1278,
      "Ġinhibit": 1279,
      "Ġmechanism": 1280,
      "Ġpattern": 1281,
      "ov": 1282,
      "ditions": 1283,
      "Ġsome": 1284,
      "Ġcle": 1285,
      "Ġphen": 1286,
      "Ġax": 1287,
      "ĠX": 1288,
      "Ġver": 1289,
      "Ġtreat": 1290,
      "Ġsize": 1291,
      "aps": 1292,
      "TG": 1293,
      "Ġdem": 1294,
      "Ġpan": 1295,
      "Ġinj": 1296,
      "Ġ30": 1297,
      "Ġif": 1298,
      "Ġconditions": 1299,
      "agent": 1300,
      "Ġfre": 1301,
      "Ġregion": 1302,
      "Ġlar": 1303,
      "Ġregions": 1304,
      "Ġhig": 1305,
      "cer": 1306,
      "ins": 1307,
      "Ġocc": 1308,
      "amic": 1309,
      "ause": 1310,
      "Ġpreviously": 1311,
      "Ġexpressed": 1312,
      "Ġtotal": 1313,
      "Ġ50": 1314,
      "ice": 1315,
      "arly": 1316,
      "Ġdevelopment": 1317,
      "istent": 1318,
      "lue": 1319,
      "iel": 1320,
      "Ġphosph": 1321,
      "actions": 1322,
      "ten": 1323,
      "Ġhow": 1324,
      "Ġidentified": 1325,
      "AS": 1326,
      "Ġstimul": 1327,
      "Ġregul": 1328,
      "ested": 1329,
      "Ġpost": 1330,
      "over": 1331,
      "Ġindividual": 1332,
      "Ġabs": 1333,
      "ie": 1334,
      "Ġstate": 1335,
      "ey": 1336,
      "ord": 1337,
      "Ġeither": 1338,
      "Ġlines": 1339,
      "aj": 1340,
      "ech": 1341,
      "ĠCell": 1342,
      "Ġrecept": 1343,
      "Ġmembrane": 1344,
      "BS": 1345,
      "Ġbased": 1346,
      "ick": 1347,
      "Ġchrom": 1348,
      "face": 1349,
      "Ġpromot": 1350,
      "19": 1351,
      "Ġshould": 1352,
      "Ġbrain": 1353,
      "oss": 1354,
      "Ġcyt": 1355,
      "Ġdyn": 1356,
      "Ġdecre": 1357,
      "medi": 1358,
      "ĠAnti": 1359,
      "Ġcontr": 1360,
      "Ġrespectively": 1361,
      "Ġ2012": 1362,
      "Ġcorresp": 1363,
      "40": 1364,
      "Ġfollowing": 1365,
      "Ġimag": 1366,
      "Ġestim": 1367,
      "Ġgrowth": 1368,
      "Ġext": 1369,
      "Ġx": 1370,
      "Ġsignaling": 1371,
      "Ġsignificantly": 1372,
      "Ġinv": 1373,
      "ont": 1374,
      "Ġrole": 1375,
      "ulture": 1376,
      "Ġsmall": 1377,
      "Ġanalyz": 1378,
      "Ġimages": 1379,
      "Ġtranscription": 1380,
      "Ġparamet": 1381,
      "Ġfil": 1382,
      "Ġep": 1383,
      "Ġmultiple": 1384,
      "Ġmit": 1385,
      "ute": 1386,
      "Ġvisual": 1387,
      "ength": 1388,
      "iqu": 1389,
      "ior": 1390,
      "Ġwork": 1391,
      "me": 1392,
      "ĠRe": 1393,
      "sc": 1394,
      "ĠEx": 1395,
      "Ġincrease": 1396,
      "Ġshowed": 1397,
      "ask": 1398,
      "Ġmethods": 1399,
      "Ġsites": 1400,
      "ade": 1401,
      "epti": 1402,
      "Ġmolec": 1403,
      "Cl": 1404,
      "Ġfit": 1405,
      "Ġindependent": 1406,
      "Ġ12": 1407,
      "30": 1408,
      "Ġanimals": 1409,
      "Ġassociated": 1410,
      "app": 1411,
      "Ġtiss": 1412,
      "uted": 1413,
      "lation": 1414,
      "Ġdid": 1415,
      "Ġtype": 1416,
      "Ġacid": 1417,
      "Ġmat": 1418,
      "Ġassay": 1419,
      "Ġincub": 1420,
      "Ġback": 1421,
      "ath": 1422,
      "Ġstrong": 1423,
      "Ġreve": 1424,
      "Ġser": 1425,
      "Ġmutants": 1426,
      "io": 1427,
      "aper": 1428,
      "Ġmeasured": 1429,
      "22": 1430,
      "Ġvir": 1431,
      "Ġvol": 1432,
      "17": 1433,
      "onstr": 1434,
      "Ġhad": 1435,
      "Ġlik": 1436,
      "Ġtreatment": 1437,
      "ĠCat": 1438,
      "hel": 1439,
      "Ġpresence": 1440,
      "Ġ2011": 1441,
      "Ġiniti": 1442,
      "Ġclass": 1443,
      "aw": 1444,
      "iven": 1445,
      "gan": 1446,
      "ĠWh": 1447,
      "uffer": 1448,
      "term": 1449,
      "Ġbec": 1450,
      "Ġexc": 1451,
      "ware": 1452,
      "rich": 1453,
      "MS": 1454,
      "itro": 1455,
      "Cs": 1456,
      "ĠPro": 1457,
      "Ġlocal": 1458,
      "ities": 1459,
      "Ġred": 1460,
      "ield": 1461,
      "omic": 1462,
      "Ġchann": 1463,
      "Ġbefore": 1464,
      "Ġphenot": 1465,
      "ness": 1466,
      "Ġimportant": 1467,
      "Ġhigher": 1468,
      "ĠIt": 1469,
      "icient": 1470,
      "Ġlong": 1471,
      "Ġdirect": 1472,
      "Ġresid": 1473,
      "Ġdemonstr": 1474,
      "of": 1475,
      "Ġelec": 1476,
      "ane": 1477,
      "Ġindicate": 1478,
      "Ġbas": 1479,
      "tivity": 1480,
      "lementary": 1481,
      "ian": 1482,
      "ove": 1483,
      "ner": 1484,
      "Ġfile": 1485,
      "erest": 1486,
      "Ġrelative": 1487,
      "Ġdifferences": 1488,
      "Ġchange": 1489,
      "ycl": 1490,
      "specific": 1491,
      "Ġresponses": 1492,
      "ftware": 1493,
      "Ġpe": 1494,
      "ately": 1495,
      "ced": 1496,
      "Ġdown": 1497,
      "RID": 1498,
      "Ġ15": 1499,
      "ven": 1500,
      "Ġcontaining": 1501,
      "Ġmodels": 1502,
      "roph": 1503,
      "Ġ**": 1504,
      "ral": 1505,
      "Ġpopulation": 1506,
      "Life": 1507,
      "80": 1508,
      "ĠAll": 1509,
      "Ġcomparis": 1510,
      "ek": 1511,
      "Ġculture": 1512,
      "ification": 1513,
      "Ġref": 1514,
      "cop": 1515,
      "ived": 1516,
      "Ġallow": 1517,
      "Ġfrequenc": 1518,
      "Ġ#": 1519,
      "Ġem": 1520,
      "ĠSupp": 1521,
      "Ġsequence": 1522,
      "Ġdynamic": 1523,
      "af": 1524,
      "::": 1525,
      "ĠTr": 1526,
      "Ġdistribution": 1527,
      "Ġincluding": 1528,
      "Ġshowing": 1529,
      "etwork": 1530,
      "SP": 1531,
      "Ġbehavior": 1532,
      "ĠÏ": 1533,
      "Ġequ": 1534,
      "ram": 1535,
      "Ġsecond": 1536,
      "TC": 1537,
      "ĠSe": 1538,
      "Ġchar": 1539,
      "Ġaverage": 1540,
      "Ġdomain": 1541,
      "Ġ2010": 1542,
      "OV": 1543,
      "ource": 1544,
      "ps": 1545,
      "gor": 1546,
      "Ġuse": 1547,
      "itu": 1548,
      "ĠCom": 1549,
      "ĠÎ±": 1550,
      "err": 1551,
      "Ġrele": 1552,
      "ma": 1553,
      "Ġfinding": 1554,
      "cell": 1555,
      "27": 1556,
      "Ġpur": 1557,
      "Ġreduced": 1558,
      "uro": 1559,
      "Ġsite": 1560,
      "Ġcir": 1561,
      "ests": 1562,
      "Ġ<": 1563,
      "Ġterm": 1564,
      "ited": 1565,
      "Ġcap": 1566,
      "ocyt": 1567,
      "Ġdue": 1568,
      "Ġvs": 1569,
      "Ġprot": 1570,
      "ĠmRNA": 1571,
      "ving": 1572,
      "eration": 1573,
      "ĠÎĶ": 1574,
      "ron": 1575,
      "Ġlim": 1576,
      "Ġanalyzed": 1577,
      "Ġany": 1578,
      "man": 1579,
      "Ġsample": 1580,
      "art": 1581,
      "Ġcontrib": 1582,
      "Ġbuffer": 1583,
      "RE": 1584,
      "Ġdep": 1585,
      "Ġwithout": 1586,
      "semb": 1587,
      "ake": 1588,
      "Ġnetwork": 1589,
      "Ġconsid": 1590,
      "olved": 1591,
      "tit": 1592,
      "26": 1593,
      "ference": 1594,
      "ĠSupplementary": 1595,
      "ule": 1596,
      "Ġstand": 1597,
      "Ġcoun": 1598,
      "Ġinformation": 1599,
      "orph": 1600,
      "ically": 1601,
      "tur": 1602,
      "Ġcondition": 1603,
      "Ġdoes": 1604,
      "Ġpoint": 1605,
      "ator": 1606,
      "AA": 1607,
      "Ġobtained": 1608,
      "Ġloss": 1609,
      "Ġexample": 1610,
      "ixed": 1611,
      "ocal": 1612,
      "Ġthose": 1613,
      "vely": 1614,
      "Ġsepar": 1615,
      "Ġdays": 1616,
      "Ġstatis": 1617,
      "Ġreveal": 1618,
      "RP": 1619,
      "Ġfour": 1620,
      "AD": 1621,
      "100": 1622,
      "Ġsubj": 1623,
      "ĠGFP": 1624,
      "Ġoccur": 1625,
      "yd": 1626,
      "Ġav": 1627,
      "based": 1628,
      "24": 1629,
      "Ġpaper": 1630,
      "ored": 1631,
      "Ġdat": 1632,
      "GG": 1633,
      "inc": 1634,
      "Ġpotential": 1635,
      "Ġvi": 1636,
      "Ġplasm": 1637,
      "ĠÎ²": 1638,
      "ĠRRID": 1639,
      "Ġcurrent": 1640,
      "Ġblock": 1641,
      "tt": 1642,
      "Ġconsistent": 1643,
      "Ġlight": 1644,
      "Ġspecies": 1645,
      "Ġmutations": 1646,
      "uss": 1647,
      "tics": 1648,
      "Ġcalculated": 1649,
      "Ġ/": 1650,
      "Ġassess": 1651,
      "Ġabove": 1652,
      "roscop": 1653,
      "Ġcontrast": 1654,
      "Ġnew": 1655,
      "II": 1656,
      "Ġfluorescence": 1657,
      "Ġbar": 1658,
      "Ġel": 1659,
      "ĠSp": 1660,
      "Ġdrug": 1661,
      "ĠAd": 1662,
      "ier": 1663,
      "hemical": 1664,
      "Ġinteraction": 1665,
      "Ġanalyses": 1666,
      "uce": 1667,
      "Ġlabel": 1668,
      "des": 1669,
      "Ġconcentration": 1670,
      "quent": 1671,
      "not": 1672,
      "ination": 1673,
      "Ġshows": 1674,
      "Ġmus": 1675,
      "hesis": 1676,
      "ector": 1677,
      "001": 1678,
      "01": 1679,
      "Ġlikely": 1680,
      "Î²": 1681,
      "arch": 1682,
      "29": 1683,
      "Ġreagent": 1684,
      "Ġenc": 1685,
      "23": 1686,
      "Ġvalue": 1687,
      "amp": 1688,
      "uch": 1689,
      "Ġwill": 1690,
      "onding": 1691,
      "resh": 1692,
      "mon": 1693,
      "TT": 1694,
      "ether": 1695,
      "seq": 1696,
      "ĠCa": 1697,
      "Ġevid": 1698,
      "ĠÃĹ": 1699,
      "Ġagain": 1700,
      "tig": 1701,
      "terior": 1702,
      "raph": 1703,
      "omet": 1704,
      "Ġneural": 1705,
      "xim": 1706,
      "Ġtimes": 1707,
      "ision": 1708,
      "Ġreported": 1709,
      "line": 1710,
      "Ġposition": 1711,
      "ibr": 1712,
      "Ġcharacter": 1713,
      "Ġdensity": 1714,
      "osis": 1715,
      "ombin": 1716,
      "Ġphase": 1717,
      "echn": 1718,
      "Ġisol": 1719,
      "Ġampl": 1720,
      "otor": 1721,
      "aptic": 1722,
      "ections": 1723,
      "abol": 1724,
      "Ġpair": 1725,
      "ty": 1726,
      "led": 1727,
      "Ġ2009": 1728,
      "tif": 1729,
      "Ġcross": 1730,
      "Ġembryos": 1731,
      "ules": 1732,
      "KO": 1733,
      "7554": 1734,
      "eLife": 1735,
      "Ġlength": 1736,
      "tain": 1737,
      "Ġbars": 1738,
      "fication": 1739,
      "Ġgenerated": 1740,
      "dom": 1741,
      "Ġlip": 1742,
      "Ġdri": 1743,
      "Ġintensity": 1744,
      "Ġcollec": 1745,
      "Ġdetermined": 1746,
      "cript": 1747,
      "Ġleft": 1748,
      "Ġconstruc": 1749,
      "Ġdispl": 1750,
      "ld": 1751,
      "though": 1752,
      "Ġconn": 1753,
      "Ġpeak": 1754,
      "ading": 1755,
      "Ġlarge": 1756,
      "/-": 1757,
      "ground": 1758,
      "ĠData": 1759,
      "53": 1760,
      "Ġstandard": 1761,
      "ou": 1762,
      "pro": 1763,
      "Ġright": 1764,
      "ĠpH": 1765,
      "Ġbel": 1766,
      "ful": 1767,
      "ished": 1768,
      "ĠÂµm": 1769,
      "Ġorgan": 1770,
      "Ġremo": 1771,
      "ales": 1772,
      "ru": 1773,
      "Ġcompon": 1774,
      "Ġhom": 1775,
      "Ġdist": 1776,
      "Ġplot": 1777,
      "ably": 1778,
      "ĠAr": 1779,
      "osome": 1780,
      "Ġrequired": 1781,
      "ienc": 1782,
      "Ġsurface": 1783,
      "Ġtask": 1784,
      "irm": 1785,
      "Ġpati": 1786,
      "oding": 1787,
      "ae": 1788,
      "Ġfunctional": 1789,
      "pr": 1790,
      "Ġ~": 1791,
      "Ġvers": 1792,
      "ĠThere": 1793,
      "45": 1794,
      "28": 1795,
      "Ġleast": 1796,
      "ĠUn": 1797,
      "Ġvia": 1798,
      "Ġappe": 1799,
      "ĠLe": 1800,
      "see": 1801,
      "Ġmight": 1802,
      "ylation": 1803,
      "Ġlower": 1804,
      "Ġ2008": 1805,
      "Ġabout": 1806,
      "Ġinteractions": 1807,
      "ials": 1808,
      "Ġrat": 1809,
      "Ġrati": 1810,
      "Ġdise": 1811,
      "AB": 1812,
      "ually": 1813,
      "ateral": 1814,
      "Ġerr": 1815,
      "met": 1816,
      "Ġpepti": 1817,
      "ID": 1818,
      "Ġpathway": 1819,
      "Ġneed": 1820,
      "vation": 1821,
      "ogene": 1822,
      "Ġfeature": 1823,
      "ĠRes": 1824,
      "Ġimaging": 1825,
      "Ġfrequency": 1826,
      "bit": 1827,
      "Ġtop": 1828,
      "Ġmy": 1829,
      "ĠQu": 1830,
      "Ġheter": 1831,
      "Ns": 1832,
      "ithm": 1833,
      "Ġexpos": 1834,
      "aterials": 1835,
      "Ġlys": 1836,
      "vestig": 1837,
      "ĠAB": 1838,
      "view": 1839,
      "Ġbackground": 1840,
      "Ġ24": 1841,
      "Ġconfirm": 1842,
      "Ġpanel": 1843,
      "Ġgenetic": 1844,
      "Ġtrials": 1845,
      "Ġcirc": 1846,
      "Ġlarg": 1847,
      "ets": 1848,
      "Ġformation": 1849,
      "Ġtypes": 1850,
      "Ġdifference": 1851,
      "iron": 1852,
      "Ġprof": 1853,
      "PCR": 1854,
      "bers": 1855,
      "ĠAntibody": 1856,
      "Ġincubated": 1857,
      "uration": 1858,
      "Ġexpressing": 1859,
      "Ġmove": 1860,
      "Ġmany": 1861,
      "Ġpresented": 1862,
      "hibition": 1863,
      "Ġmax": 1864,
      "exp": 1865,
      "ĠOur": 1866,
      "Ġparticip": 1867,
      "Ġneg": 1868,
      "ajor": 1869,
      "ino": 1870,
      "Ġsl": 1871,
      "88": 1872,
      "Ġarea": 1873,
      "Ġinvestig": 1874,
      "33": 1875,
      "Ġtreated": 1876,
      "Ġabsence": 1877,
      "ĠÎ¼m": 1878,
      "Ġinput": 1879,
      "Ġfollowed": 1880,
      "iod": 1881,
      "ochond": 1882,
      "atin": 1883,
      "Ġ25": 1884,
      "ective": 1885,
      "Ġrepe": 1886,
      "ised": 1887,
      "isher": 1888,
      "Ġsever": 1889,
      "Ġ\"": 1890,
      "tegr": 1891,
      "CA": 1892,
      "Ġgiven": 1893,
      "Ġtissue": 1894,
      "perature": 1895,
      "Ġintr": 1896,
      "Ġadditional": 1897,
      "Ġcorresponding": 1898,
      "CD": 1899,
      "Ġparameters": 1900,
      "rior": 1901,
      "ĠBi": 1902,
      "Ġstep": 1903,
      "ochondri": 1904,
      "Ġstrain": 1905,
      "gorithm": 1906,
      "Ġmicroscop": 1907,
      "Ġexperimental": 1908,
      "Ġdetected": 1909,
      "ged": 1910,
      "Ġpossible": 1911,
      "igma": 1912,
      "Ġevidence": 1913,
      "Ġdistin": 1914,
      "ĠSD": 1915,
      "Ġage": 1916,
      "ocytes": 1917,
      "Ġunc": 1918,
      "Ġmetabol": 1919,
      "Ġmajor": 1920,
      "47": 1921,
      "Ġinfection": 1922,
      "utions": 1923,
      "Ġvery": 1924,
      "In": 1925,
      "Ġstimulation": 1926,
      "Ġless": 1927,
      "Ġsequences": 1928,
      "ĠThus": 1929,
      "Ġviv": 1930,
      "bl": 1931,
      "Ġgroups": 1932,
      "Ġapproach": 1933,
      "ellular": 1934,
      "Ġextrac": 1935,
      "Ġpositive": 1936,
      "Ġorig": 1937,
      "Ġ*": 1938,
      "Ġpoints": 1939,
      "Ġknock": 1940,
      "Ġfactors": 1941,
      "Ġtemperature": 1942,
      "Ġalle": 1943,
      "Ġalgorithm": 1944,
      "60": 1945,
      "ality": 1946,
      "AL": 1947,
      "Ġrecording": 1948,
      "Ġtested": 1949,
      "Ġbecause": 1950,
      "Ġ>": 1951,
      "Ġvivo": 1952,
      "Ġdatas": 1953,
      "Ġantibody": 1954,
      "Ġreceptor": 1955,
      "Ġgre": 1956,
      "Ġunderst": 1957,
      "Ġye": 1958,
      "ince": 1959,
      "Ġseg": 1960,
      "Ġknown": 1961,
      "ott": 1962,
      "Ġmed": 1963,
      "trans": 1964,
      "esis": 1965,
      "Ġspati": 1966,
      "ER": 1967,
      "ĠKO": 1968,
      "SA": 1969,
      "Ġmid": 1970,
      "Ġalong": 1971,
      "Ġquantif": 1972,
      "ĠAfter": 1973,
      "Ġgenome": 1974,
      "Ġinterest": 1975,
      "ĠPl": 1976,
      "Ġearly": 1977,
      "ties": 1978,
      "ĠAN": 1979,
      "SCs": 1980,
      "ount": 1981,
      "ĠNot": 1982,
      "Ġfindings": 1983,
      "Ġupon": 1984,
      "Ġdel": 1985,
      "43": 1986,
      "OX": 1987,
      "Ġlear": 1988,
      "Ġdim": 1989,
      "Ġnm": 1990,
      "ily": 1991,
      "Ġ2007": 1992,
      "Ġmusc": 1993,
      "reated": 1994,
      "Ġbound": 1995,
      "activ": 1996,
      "Ġhypot": 1997,
      "Ġcr": 1998,
      "Ġtum": 1999,
      "olar": 2000,
      "tation": 2001,
      "Ġlack": 2002,
      "ĠNa": 2003,
      "Ġmitochondri": 2004,
      "rection": 2005,
      "ycle": 2006,
      "com": 2007,
      "ingly": 2008,
      "ids": 2009,
      "BP": 2010,
      "ĠÂµM": 2011,
      "ling": 2012,
      "ension": 2013,
      "ire": 2014,
      "ailed": 2015,
      "Ġseveral": 2016,
      "ream": 2017,
      "Ġcomple": 2018,
      "Ġcorrelation": 2019,
      "Ġdynamics": 2020,
      "Ġimage": 2021,
      "70": 2022,
      "yg": 2023,
      "Ġfem": 2024,
      "Ġblue": 2025,
      "ateg": 2026,
      "Ġproj": 2027,
      "Ġresult": 2028,
      "Ġprovide": 2029,
      "Ġavail": 2030,
      "ml": 2031,
      "ĠScale": 2032,
      "Ġeven": 2033,
      "Ġenhan": 2034,
      "//": 2035,
      "ape": 2036,
      "://": 2037,
      "ĠGene": 2038,
      "Ġneuro": 2039,
      "Ġele": 2040,
      "Ġdistinct": 2041,
      "igned": 2042,
      "Ġcompound": 2043,
      "Ġstaining": 2044,
      "Ġsee": 2045,
      "LC": 2046,
      "ĠRec": 2047,
      "Ġstimulus": 2048,
      "Ġexhibit": 2049,
      "ST": 2050,
      "Ġcaus": 2051,
      "ways": 2052,
      "Ġsuggesting": 2053,
      "Ġms": 2054,
      "onic": 2055,
      "Ġday": 2056,
      "Ġrange": 2057,
      "Ġprior": 2058,
      "Ġoverl": 2059,
      "mit": 2060,
      "agn": 2061,
      "Ġelectro": 2062,
      "imum": 2063,
      "Ġsym": 2064,
      "Ġpart": 2065,
      "Ġpopulations": 2066,
      "Ġmutation": 2067,
      "test": 2068,
      "entific": 2069,
      "IF": 2070,
      "Ġagainst": 2071,
      "Ġpo": 2072,
      "EP": 2073,
      "ĠRep": 2074,
      "ĠSo": 2075,
      "set": 2076,
      "Ġsynt": 2077,
      "atively": 2078,
      "Ġperiod": 2079,
      "EG": 2080,
      "fected": 2081,
      "Ġidentify": 2082,
      "Ġbod": 2083,
      "Ġrevealed": 2084,
      "Cre": 2085,
      "Ġparticular": 2086,
      "OR": 2087,
      "uk": 2088,
      "ĠMaterials": 2089,
      "sequent": 2090,
      "zym": 2091,
      "Ġmanus": 2092,
      "hip": 2093,
      "atal": 2094,
      "Ġdele": 2095,
      "Ġphosphory": 2096,
      "Ġ16": 2097,
      "OVA": 2098,
      "mer": 2099,
      "Ġfield": 2100,
      "ĠFurther": 2101,
      "ibility": 2102,
      "vere": 2103,
      "ĠCl": 2104,
      "Ġder": 2105,
      "induced": 2106,
      "ĠAt": 2107,
      "Ġsupport": 2108,
      "90": 2109,
      "Ġevolution": 2110,
      "Ġhtt": 2111,
      "fficient": 2112,
      "Ġinhibition": 2113,
      "Ġratio": 2114,
      "ĠHe": 2115,
      "IR": 2116,
      "TA": 2117,
      "ĠPCR": 2118,
      "osomes": 2119,
      "nal": 2120,
      "reshold": 2121,
      "Ġtrac": 2122,
      "gl": 2123,
      "son": 2124,
      "ulin": 2125,
      "isc": 2126,
      "ĠATP": 2127,
      "Ġactive": 2128,
      "Ġmanuscript": 2129,
      "Ġsw": 2130,
      "PC": 2131,
      "Ġadd": 2132,
      "Ġlay": 2133,
      "Ġhere": 2134,
      "bodies": 2135,
      "ogn": 2136,
      "Ġintegr": 2137,
      "Ġorder": 2138,
      "Ġdisease": 2139,
      "Ġ13": 2140,
      "ĠQuanti": 2141,
      "ressed": 2142,
      "ode": 2143,
      "Ġhighly": 2144,
      "ulate": 2145,
      "Ġbiological": 2146,
      "ume": 2147,
      "viron": 2148,
      "Ġprec": 2149,
      "ipp": 2150,
      "nt": 2151,
      "Ġmorph": 2152,
      "Ġresist": 2153,
      "Ġgenot": 2154,
      "Ġindicates": 2155,
      "Ġcase": 2156,
      "ĠExp": 2157,
      "az": 2158,
      "poral": 2159,
      "Ġdetermine": 2160,
      "Ġpatients": 2161,
      "ĠTable": 2162,
      "Ġmotif": 2163,
      "Ġrates": 2164,
      "Ġ-/-": 2165,
      "opl": 2166,
      "Ġfactor": 2167,
      "44": 2168,
      "ĠPBS": 2169,
      "Ġinduced": 2170,
      "istic": 2171,
      "Ġcortex": 2172,
      "Ġfib": 2173,
      "Ġcontrols": 2174,
      "ĠSci": 2175,
      "Ġbacter": 2176,
      "Ġthus": 2177,
      "Ġdefined": 2178,
      "Ġdisplay": 2179,
      "rop": 2180,
      "Ġmechanisms": 2181,
      "aneous": 2182,
      "unctions": 2183,
      "Ġcellular": 2184,
      "Ġexpected": 2185,
      "pre": 2186,
      "itude": 2187,
      "Ġfull": 2188,
      "other": 2189,
      "Ġlig": 2190,
      "Ġdiss": 2191,
      "Ġcomparison": 2192,
      "Ġ2006": 2193,
      "Ġhist": 2194,
      "pa": 2195,
      "tric": 2196,
      "ĠST": 2197,
      "ke": 2198,
      "ysi": 2199,
      "Ġadap": 2200,
      "Ġvitro": 2201,
      "uble": 2202,
      "abil": 2203,
      "Ġprote": 2204,
      "Ġresidues": 2205,
      "Ġadded": 2206,
      "abl": 2207,
      "verse": 2208,
      "Ġproper": 2209,
      "Ġcycle": 2210,
      "Ġneuron": 2211,
      "Ġfraction": 2212,
      "cy": 2213,
      "ottom": 2214,
      "Ġmedium": 2215,
      "Ġerror": 2216,
      "ef": 2217,
      "Ġflow": 2218,
      "Ġhel": 2219,
      "IV": 2220,
      "Ġmm": 2221,
      "Ġreplicates": 2222,
      "vant": 2223,
      "Ġlink": 2224,
      "eline": 2225,
      "isk": 2226,
      "Ġthreshold": 2227,
      "Ġdirectly": 2228,
      "Ġphot": 2229,
      "stream": 2230,
      "like": 2231,
      "Ġnormalized": 2232,
      "Ġstructures": 2233,
      "port": 2234,
      "Ġsum": 2235,
      "mediated": 2236,
      "Ġinflu": 2237,
      "Ġdend": 2238,
      "Ġextr": 2239,
      "Ġprimary": 2240,
      "co": 2241,
      "ĠII": 2242,
      "be": 2243,
      "ĠWhile": 2244,
      "Ġsol": 2245,
      "Ġmolecular": 2246,
      "Ġri": 2247,
      "Ġsolution": 2248,
      "IC": 2249,
      "Ġnegative": 2250,
      "ĠPh": 2251,
      "Ġweek": 2252,
      "Ġdil": 2253,
      "Ġsignals": 2254,
      "DNA": 2255,
      "lied": 2256,
      "ĠANOVA": 2257,
      "ĠCon": 2258,
      "itions": 2259,
      "Ġ14": 2260,
      "Ġclear": 2261,
      "63": 2262,
      "Ġu": 2263,
      "ĠNe": 2264,
      "Ġox": 2265,
      "Ġacqu": 2266,
      "Ġest": 2267,
      "Ġchannel": 2268,
      "Ġrecent": 2269,
      "Ġaccording": 2270,
      "Ġincluded": 2271,
      "Ġenviron": 2272,
      "Ġneuronal": 2273,
      "agen": 2274,
      "oz": 2275,
      "abbit": 2276,
      "ower": 2277,
      "inally": 2278,
      "Ġpatterns": 2279,
      "ÎĶ": 2280,
      "Ġmotor": 2281,
      "Ġreflec": 2282,
      "Ġtherefore": 2283,
      "Ġpub": 2284,
      "Ġol": 2285,
      "Ġview": 2286,
      "Ġvariants": 2287,
      "Ġrelated": 2288,
      "MD": 2289,
      "Ġlit": 2290,
      "ame": 2291,
      "Ġ2005": 2292,
      "Ġrandom": 2293,
      "Ġgeneral": 2294,
      "Ġavailable": 2295,
      "ext": 2296,
      "Ġassemb": 2297,
      "apping": 2298,
      "pan": 2299,
      "ones": 2300,
      "tered": 2301,
      "fl": 2302,
      "Ġconser": 2303,
      "ĠSh": 2304,
      "Ġbeing": 2305,
      "asing": 2306,
      "Ġlearning": 2307,
      "oti": 2308,
      "Ġread": 2309,
      "Ġcontex": 2310,
      "Ġbelow": 2311,
      "ols": 2312,
      "âĪ": 2313,
      "Ġclusters": 2314,
      "Ġdistance": 2315,
      "Ġaccum": 2316,
      "regulated": 2317,
      "Ġreporter": 2318,
      "ombinant": 2319,
      "Ġwhole": 2320,
      "Ġantibodies": 2321,
      "Ġed": 2322,
      "57": 2323,
      "fact": 2324,
      "Ġamino": 2325,
      "ults": 2326,
      "Ġsuper": 2327,
      "Ġtub": 2328,
      "TR": 2329,
      "ĠChemical": 2330,
      "amin": 2331,
      "Ġfeed": 2332,
      "Ġadj": 2333,
      "Ġbody": 2334,
      "Ġdifferentiation": 2335,
      "uals": 2336,
      "tag": 2337,
      "Ġlog": 2338,
      "CG": 2339,
      "Ġsubstr": 2340,
      "IS": 2341,
      "Ġamong": 2342,
      "Ġcollected": 2343,
      "alth": 2344,
      "Ġthem": 2345,
      "astic": 2346,
      "Ġsequencing": 2347,
      "Ġevents": 2348,
      "ĠSim": 2349,
      "ĠGen": 2350,
      "itation": 2351,
      "ĠÎ¼M": 2352,
      "ĠScientific": 2353,
      "Ġ11": 2354,
      "gether": 2355,
      "Ġtogether": 2356,
      "treated": 2357,
      "herry": 2358,
      "Ġconcentrations": 2359,
      "ĠOn": 2360,
      "riched": 2361,
      "ra": 2362,
      "Ġsubun": 2363,
      "Ġprol": 2364,
      "lab": 2365,
      "46": 2366,
      "tub": 2367,
      "Ġspatial": 2368,
      "ĠPM": 2369,
      "Ġtransfer": 2370,
      "Ġregulation": 2371,
      "down": 2372,
      "ĠRepresent": 2373,
      "CS": 2374,
      "Ġstrains": 2375,
      "Ġmac": 2376,
      "Ġtranscript": 2377,
      "Ġfeatures": 2378,
      "Ġcho": 2379,
      "Ġcombin": 2380,
      "ĠSoftware": 2381,
      "ify": 2382,
      "Ġfam": 2383,
      "Ġcommon": 2384,
      "Ġsuggests": 2385,
      "Ġwhereas": 2386,
      ");": 2387,
      "Ġ37": 2388,
      "Ġap": 2389,
      "Ġresulting": 2390,
      "Ġwashed": 2391,
      "rected": 2392,
      "ission": 2393,
      "ES": 2394,
      "Ġinitial": 2395,
      "Ġreview": 2396,
      "ationship": 2397,
      "Ġshort": 2398,
      "ann": 2399,
      "vent": 2400,
      "asc": 2401,
      "ands": 2402,
      "itor": 2403,
      "Ġstage": 2404,
      "Ġcardi": 2405,
      "Ġill": 2406,
      "Ġagg": 2407,
      "versity": 2408,
      "Ġaccess": 2409,
      "Ġbet": 2410,
      "ussion": 2411,
      "xt": 2412,
      "Ġreference": 2413,
      "Ġq": 2414,
      "ogenous": 2415,
      "ĠMore": 2416,
      "BD": 2417,
      "36": 2418,
      "Ġent": 2419,
      "Ġenzym": 2420,
      "ophil": 2421,
      "sh": 2422,
      "Ġfive": 2423,
      "ysis": 2424,
      "Ġtoward": 2425,
      "ĠFisher": 2426,
      "ger": 2427,
      "ĠRepresentative": 2428,
      "ĠEn": 2429,
      "air": 2430,
      "Ġadult": 2431,
      "Ġselected": 2432,
      "GF": 2433,
      "Ġarrow": 2434,
      "ĠCol": 2435,
      "Ġ40": 2436,
      "min": 2437,
      "alu": 2438,
      "elf": 2439,
      "Ġsubsequent": 2440,
      "ocus": 2441,
      "Ġcortical": 2442,
      "48": 2443,
      "IN": 2444,
      "Ġwhat": 2445,
      "Ġstrateg": 2446,
      "Ġestabl": 2447,
      "ĠCo": 2448,
      "ta": 2449,
      "%)": 2450,
      "umn": 2451,
      "till": 2452,
      "Ġblood": 2453,
      "Ġvirus": 2454,
      "bi": 2455,
      "Ġphenotype": 2456,
      "Ġpathways": 2457,
      "Ġkit": 2458,
      "aken": 2459,
      "pling": 2460,
      "Ġrelationship": 2461,
      "estern": 2462,
      "ĠStr": 2463,
      "ĠSEM": 2464,
      "Ġproduc": 2465,
      "ograph": 2466,
      "Ġdepend": 2467,
      "ll": 2468,
      "izing": 2469,
      "35": 2470,
      "orded": 2471,
      "Ġrepresents": 2472,
      "ocy": 2473,
      "Ġlinear": 2474,
      "OS": 2475,
      "Ġoff": 2476,
      "Ġstatistical": 2477,
      "Ġpropor": 2478,
      "ressing": 2479,
      "38": 2480,
      "ĠIL": 2481,
      "Cherry": 2482,
      "Ġfac": 2483,
      "Ġevalu": 2484,
      "Ġreceptors": 2485,
      "Ġpercent": 2486,
      "ops": 2487,
      "Ġdecreased": 2488,
      "eth": 2489,
      "Ġkey": 2490,
      "ĠER": 2491,
      "Ġchannels": 2492,
      "con": 2493,
      "ĠSch": 2494,
      "Ġprogen": 2495,
      "eed": 2496,
      "Ġinvolved": 2497,
      "bor": 2498,
      "ĠIf": 2499,
      "Ġstates": 2500,
      "orted": 2501,
      "Ġdomains": 2502,
      "fold": 2503,
      "Ġfixed": 2504,
      "Ġ2004": 2505,
      "more": 2506,
      "Ġindividuals": 2507,
      "Ġhyd": 2508,
      "aged": 2509,
      "Ġtrack": 2510,
      "Ġparticipants": 2511,
      "99": 2512,
      "Ġopen": 2513,
      "ĠIF": 2514,
      "Ġareas": 2515,
      "Ġstar": 2516,
      "Ġfigure": 2517,
      "Ġprobability": 2518,
      "Ġmale": 2519,
      "Ġassays": 2520,
      "Ġsoftware": 2521,
      "Ġrun": 2522,
      "Ġapplied": 2523,
      "Ġprovided": 2524,
      "Ġindicating": 2525,
      "lo": 2526,
      "ĠAc": 2527,
      "Ġblot": 2528,
      "ift": 2529,
      "ĠHere": 2530,
      "Ġfunctions": 2531,
      "ĠMe": 2532,
      "Ġnec": 2533,
      "37": 2534,
      "34": 2535,
      "aced": 2536,
      "Ġrecru": 2537,
      "Ġimpro": 2538,
      "Ġ:": 2539,
      "very": 2540,
      "Ġrecorded": 2541,
      "Ġpredicted": 2542,
      "Ġvalid": 2543,
      "ĠHz": 2544,
      "/+": 2545,
      "Ġpromoter": 2546,
      "MT": 2547,
      "95": 2548,
      "ĠEach": 2549,
      "iRNA": 2550,
      "Ġmass": 2551,
      "Ġmeasurements": 2552,
      "Ġabund": 2553,
      "ye": 2554,
      "izes": 2555,
      "ĠCells": 2556,
      "Ġlabeled": 2557,
      "Ġresistance": 2558,
      "rient": 2559,
      "Ġden": 2560,
      "Ġexposure": 2561,
      "ters": 2562,
      "Ġmg": 2563,
      "Ġ18": 2564,
      "ĠPar": 2565,
      "richment": 2566,
      "Ġrepro": 2567,
      "Ġstress": 2568,
      "ave": 2569,
      "Ġgrad": 2570,
      "The": 2571,
      "Ġvent": 2572,
      "tically": 2573,
      "Ġdiff": 2574,
      "ogenesis": 2575,
      "Ġsections": 2576,
      "Ġlipid": 2577,
      "ii": 2578,
      "Ġcontext": 2579,
      "au": 2580,
      "Ġsuc": 2581,
      "ocl": 2582,
      "Ġgreen": 2583,
      "Ġfiring": 2584,
      "lying": 2585,
      "Ġnuclear": 2586,
      "Ġpr": 2587,
      "Ġfinal": 2588,
      "Ġbro": 2589,
      "Ġgly": 2590,
      "yr": 2591,
      "Ġpeptide": 2592,
      "ung": 2593,
      "omer": 2594,
      "Ġvolume": 2595,
      "Ġprofil": 2596,
      "Ġphosphorylation": 2597,
      "Ġstill": 2598,
      "deed": 2599,
      "ustr": 2600,
      "for": 2601,
      "Ġreduction": 2602,
      "Ġmitochondrial": 2603,
      "aff": 2604,
      "Ġrather": 2605,
      "Ġnumbers": 2606,
      "0001": 2607,
      "ĠDe": 2608,
      "Ġconst": 2609,
      "HA": 2610,
      "Ġdecrease": 2611,
      "Ġmade": 2612,
      "Ġrob": 2613,
      "Ġnovel": 2614,
      "Ġtrial": 2615,
      "EC": 2616,
      "Ġrecons": 2617,
      "Ġtechn": 2618,
      "Ġpower": 2619,
      "ird": 2620,
      "Ġconsidered": 2621,
      "Ġproduction": 2622,
      "Ġcontin": 2623,
      "Ġimplic": 2624,
      "Ġmuscle": 2625,
      "Ġtemporal": 2626,
      "obl": 2627,
      "ĠPD": 2628,
      "Fs": 2629,
      "ĠRT": 2630,
      "Ġside": 2631,
      "Ġconduc": 2632,
      "Ġaffect": 2633,
      "Ġprotoc": 2634,
      "oplasm": 2635,
      "acts": 2636,
      "Ch": 2637,
      "pts": 2638,
      "Ġaccur": 2639,
      "aster": 2640,
      "Ġfree": 2641,
      "Ġsynaptic": 2642,
      "LA": 2643,
      "Ġdetect": 2644,
      "Ġanimal": 2645,
      "xp": 2646,
      "Ġhttps": 2647,
      "green": 2648,
      "Ġonset": 2649,
      "Ġvector": 2650,
      "related": 2651,
      "ycin": 2652,
      "MC": 2653,
      "Ġmuch": 2654,
      "Ġhowever": 2655,
      "ĠSN": 2656,
      "Ġclos": 2657,
      "ĠBr": 2658,
      "otic": 2659,
      "FC": 2660,
      "Ġdeple": 2661,
      "ton": 2662,
      "imal": 2663,
      "DR": 2664,
      "Ġgenerate": 2665,
      "ĠIns": 2666,
      "go": 2667,
      "anding": 2668,
      "ĠCC": 2669,
      "ady": 2670,
      "200": 2671,
      "antly": 2672,
      "Ġmovement": 2673,
      "ope": 2674,
      "Ġcorrespond": 2675,
      "Ġdetail": 2676,
      "Ġselection": 2677,
      "utam": 2678,
      "Ġenvironment": 2679,
      "Ġforce": 2680,
      "Ġhighl": 2681,
      "68": 2682,
      "Ġmagn": 2683,
      "ĠQuantification": 2684,
      "tural": 2685,
      "Ġrap": 2686,
      "Ġcri": 2687,
      "Ġplots": 2688,
      "Ġsom": 2689,
      "Ġobj": 2690,
      "Ġversus": 2691,
      "Ġisolated": 2692,
      "aking": 2693,
      "ĠRP": 2694,
      "gans": 2695,
      "Ġnext": 2696,
      "ptom": 2697,
      "asts": 2698,
      "42": 2699,
      "Ġresolution": 2700,
      "Ġenriched": 2701,
      "ĠAP": 2702,
      "terminal": 2703,
      "Ġquantified": 2704,
      "ances": 2705,
      "by": 2706,
      "Ġcomponents": 2707,
      "Co": 2708,
      "Ġfusion": 2709,
      "Ġhal": 2710,
      "Ġcolumn": 2711,
      "blue": 2712,
      "omal": 2713,
      "ĠCA": 2714,
      "ĠFurthermore": 2715,
      "Ġmap": 2716,
      "Ġfocus": 2717,
      "Ġ2021": 2718,
      "ique": 2719,
      "67": 2720,
      "ches": 2721,
      "Ġsection": 2722,
      "ĠAlthough": 2723,
      "Ġlat": 2724,
      "1000": 2725,
      "ww": 2726,
      "Ġcases": 2727,
      "Ġmarker": 2728,
      "Ġbox": 2729,
      "39": 2730,
      "Ġbind": 2731,
      "Ġprolif": 2732,
      "Ġoverall": 2733,
      "atur": 2734,
      "ĠDros": 2735,
      "Ġprocesses": 2736,
      "49": 2737,
      "Ġess": 2738,
      "ĠLi": 2739,
      "Ġseem": 2740,
      "itivity": 2741,
      "Ġexamined": 2742,
      "Ġplasmid": 2743,
      "ĠTrans": 2744,
      "Ġsimulations": 2745,
      "Ġperformance": 2746,
      "wise": 2747,
      "Ġactin": 2748,
      "Ġstained": 2749,
      "Ġmarkers": 2750,
      "luor": 2751,
      "Ġhem": 2752,
      "Ġact": 2753,
      "Ġslow": 2754,
      "aries": 2755,
      "oint": 2756,
      "ontrol": 2757,
      "Ġsufficient": 2758,
      "Ġkin": 2759,
      "pled": 2760,
      "ucose": 2761,
      "Ġlarger": 2762,
      "Ġtumor": 2763,
      "Ġfew": 2764,
      "ophila": 2765,
      "ergy": 2766,
      "ĠTherefore": 2767,
      "Ġhar": 2768,
      "Ġconcl": 2769,
      "Ġtargets": 2770,
      "Ġ2003": 2771,
      "Ġ60": 2772,
      "Ġcoli": 2773,
      "Ġcolon": 2774,
      "Ġchromatin": 2775,
      "Ġwater": 2776,
      "roup": 2777,
      "FA": 2778,
      "Ġenrichment": 2779,
      "Ġconserved": 2780,
      "ĠAT": 2781,
      "ank": 2782,
      "Ġpotenti": 2783,
      "Ġbaseline": 2784,
      "Ġstimuli": 2785,
      "Ġdors": 2786,
      "Ġneut": 2787,
      "Ġques": 2788,
      "ĠSigma": 2789,
      "ĠTM": 2790,
      "igr": 2791,
      "Ġepit": 2792,
      "ĠDrosophila": 2793,
      "Ġrelease": 2794,
      "Ġâī": 2795,
      "Ġincreases": 2796,
      "acc": 2797,
      "Ġbehavioral": 2798,
      "rup": 2799,
      "aded": 2800,
      "ck": 2801,
      "ĠPC": 2802,
      "Ġdevi": 2803,
      "gene": 2804,
      "Ġcomparisons": 2805,
      "Ġdeletion": 2806,
      "urn": 2807,
      "Ġther": 2808,
      "iting": 2809,
      "Ġaround": 2810,
      "ĠnM": 2811,
      "omy": 2812,
      "Ġsex": 2813,
      "icienc": 2814,
      "Ġpolym": 2815,
      "Ġcancer": 2816,
      "Ġderived": 2817,
      "RT": 2818,
      "kin": 2819,
      "Ġapproxim": 2820,
      "Ġdon": 2821,
      "Ġconsider": 2822,
      "Ġproportion": 2823,
      "Ġnuclei": 2824,
      "Ġ198": 2825,
      "ociated": 2826,
      "EK": 2827,
      "ational": 2828,
      "ĠSource": 2829,
      "Glu": 2830,
      "ĠCre": 2831,
      "ides": 2832,
      "66": 2833,
      "Ġcou": 2834,
      "Ġrib": 2835,
      "ĠTher": 2836,
      "Ġhost": 2837,
      "wh": 2838,
      "ĠCT": 2839,
      "Ġnecess": 2840,
      "ency": 2841,
      "ĠAddition": 2842,
      "ms": 2843,
      "Ġactivated": 2844,
      "Ġrepresentative": 2845,
      "inity": 2846,
      "Ġinterpre": 2847,
      "Ġdataset": 2848,
      "Ġdouble": 2849,
      "overy": 2850,
      "EL": 2851,
      "Ġgrown": 2852,
      "ergic": 2853,
      "Ġestimated": 2854,
      "Ġrobust": 2855,
      "Ġfind": 2856,
      "Ġdemonstrate": 2857,
      "Ġtranscriptional": 2858,
      "Ġ95": 2859,
      "Ġreads": 2860,
      "ĠOne": 2861,
      "Ġsurvi": 2862,
      "Ġaxis": 2863,
      "indow": 2864,
      "the": 2865,
      "Ġsensory": 2866,
      "Ġconfirmed": 2867,
      "Ġprog": 2868,
      "Ġ2002": 2869,
      "Ġprocessing": 2870,
      "lor": 2871,
      "Ġremoved": 2872,
      "Ġ17": 2873,
      "Ġprop": 2874,
      "Ġang": 2875,
      "Ġlocation": 2876,
      "Ġrese": 2877,
      "Ġcomb": 2878,
      "ĠUs": 2879,
      "Ġimmune": 2880,
      "Ġallele": 2881,
      "helial": 2882,
      "ched": 2883,
      "Ġimpact": 2884,
      "ĠImmun": 2885,
      "Ġsperm": 2886,
      "Ġdetection": 2887,
      "mL": 2888,
      "Ġmicroscopy": 2889,
      "ĠCons": 2890,
      "brid": 2891,
      "Ġpairs": 2892,
      "Ġbetter": 2893,
      "binding": 2894,
      "Ġinser": 2895,
      "Ġgo": 2896,
      "Ġparti": 2897,
      "Ġfluorescent": 2898,
      "Ġretin": 2899,
      "luorescence": 2900,
      "Ġinjection": 2901,
      "Se": 2902,
      "Ġ2000": 2903,
      "Ġannot": 2904,
      "âĢ²": 2905,
      "ights": 2906,
      "ators": 2907,
      "Ġweeks": 2908,
      "ometry": 2909,
      "Ġopp": 2910,
      "Ġmemory": 2911,
      "ĠAb": 2912,
      "Ġcritical": 2913,
      "Ġinduction": 2914,
      "oclonal": 2915,
      "Ġcalcium": 2916,
      "Ġ***": 2917,
      "Ġproperties": 2918,
      "Ġviral": 2919,
      "500": 2920,
      "Ġability": 2921,
      "Ġbre": 2922,
      "uture": 2923,
      "Ġsince": 2924,
      "Ġorient": 2925,
      "Ġaggreg": 2926,
      "GC": 2927,
      "Ġreaction": 2928,
      "ĠResults": 2929,
      "tage": 2930,
      "IM": 2931,
      "Ġsumm": 2932,
      "Ġmedia": 2933,
      "Ãħ": 2934,
      "Ġcentral": 2935,
      "hy": 2936,
      "range": 2937,
      "31": 2938,
      "Ġsignificance": 2939,
      "ĠSP": 2940,
      "verexp": 2941,
      "Ġreplication": 2942,
      "Ġassessed": 2943,
      "duce": 2944,
      "here": 2945,
      "activation": 2946,
      "uous": 2947,
      "Ġincreasing": 2948,
      "Ġmaximum": 2949,
      "Ġsix": 2950,
      "ysiological": 2951,
      "ĠInt": 2952,
      "kn": 2953,
      "Ġphenotypes": 2954,
      "Ġrecordings": 2955,
      "Ġtransition": 2956,
      "Ġfrag": 2957,
      "Ġoptim": 2958,
      "Ġmolecules": 2959,
      "reng": 2960,
      "OI": 2961,
      "Ġspeed": 2962,
      "oked": 2963,
      "Ġtranslation": 2964,
      "56": 2965,
      "Ġbur": 2966,
      "Ġpurified": 2967,
      "Ġhalf": 2968,
      "Ġwindow": 2969,
      "Ġdirection": 2970,
      "positive": 2971,
      "Ġfitness": 2972,
      "Ġenti": 2973,
      "Ġassum": 2974,
      "ideo": 2975,
      "right": 2976,
      "Ġrapid": 2977,
      "acy": 2978,
      "Ġreward": 2979,
      "itrogen": 2980,
      "rif": 2981,
      "Ġner": 2982,
      "Ġsubjects": 2983,
      "Ġtissues": 2984,
      "night": 2985,
      "Ġgreater": 2986,
      "Ġlibr": 2987,
      "Ġconformation": 2988,
      "Ġcompos": 2989,
      "ogenic": 2990,
      "Ġcomponent": 2991,
      "Ġcycl": 2992,
      "Ġvariation": 2993,
      "ĠFinally": 2994,
      "Ġcarri": 2995,
      "Ġmamm": 2996,
      "Ġaction": 2997,
      "hematic": 2998,
      "posed": 2999,
      "cedure": 3000,
      "Ġrestric": 3001,
      "Ġanterior": 3002,
      "ĠPer": 3003,
      "Ġintro": 3004,
      "Ġseed": 3005,
      "Ġ500": 3006,
      "Ġvarious": 3007,
      "Ġfemale": 3008,
      "Ġdeath": 3009,
      "Ġ]": 3010,
      "ebr": 3011,
      "RC": 3012,
      "inical": 3013,
      "ĠCH": 3014,
      "Ġtransm": 3015,
      "Ġendogenous": 3016,
      "ĠSimilar": 3017,
      "tracellular": 3018,
      "Ġstrongly": 3019,
      "Ġcere": 3020,
      "Ġinfected": 3021,
      "Ġdemonstrated": 3022,
      "Ġbroad": 3023,
      "Ġparameter": 3024,
      "ferenti": 3025,
      "itch": 3026,
      "aging": 3027,
      "Ġinjected": 3028,
      "ĠThermo": 3029,
      "ense": 3030,
      "Ġdegr": 3031,
      "Ġstreng": 3032,
      "ĠIg": 3033,
      "Ġpul": 3034,
      "Ġlike": 3035,
      "back": 3036,
      "Ġsess": 3037,
      "elle": 3038,
      "Ġinhibitor": 3039,
      "32": 3040,
      "Ġgerm": 3041,
      "iciency": 3042,
      "Ġspectr": 3043,
      "Ġsegment": 3044,
      "umin": 3045,
      "Ġentire": 3046,
      "ĠLab": 3047,
      "Ġrece": 3048,
      "Ġhypothesis": 3049,
      "Ġstructural": 3050,
      "ato": 3051,
      "PA": 3052,
      "rp": 3053,
      "ĠRNAi": 3054,
      "pared": 3055,
      "Ġgenomic": 3056,
      "HC": 3057,
      "ĠMoreover": 3058,
      "ring": 3059,
      "odel": 3060,
      "ray": 3061,
      "ellow": 3062,
      "Ġprocedure": 3063,
      "neur": 3064,
      "Ġsecondary": 3065,
      "ental": 3066,
      "rifug": 3067,
      "Ġhead": 3068,
      "istr": 3069,
      "Ġexclu": 3070,
      "Ġmethylation": 3071,
      "Ġsynthesis": 3072,
      "ange": 3073,
      "ocyte": 3074,
      "Ġquantification": 3075,
      "Ġmonoclonal": 3076,
      "Ġconstant": 3077,
      "Ġgraph": 3078,
      "dT": 3079,
      "Ġevery": 3080,
      "Ġmigr": 3081,
      "Ġduration": 3082,
      "lication": 3083,
      "Ġ2001": 3084,
      "Ġthroughout": 3085,
      "rose": 3086,
      "ĠApp": 3087,
      "Ġrepl": 3088,
      "ĠDisc": 3089,
      "Ġplate": 3090,
      "Ġassociation": 3091,
      "ozyg": 3092,
      "value": 3093,
      "Ġsubstrate": 3094,
      "Ġalthough": 3095,
      "ynaptic": 3096,
      "dle": 3097,
      "Ġessential": 3098,
      "Ġseen": 3099,
      "Ġglucose": 3100,
      "Ġdownstream": 3101,
      "Ġdeg": 3102,
      "Ġmicrotub": 3103,
      "ocamp": 3104,
      "Ġrequire": 3105,
      "ippocamp": 3106,
      "Ġche": 3107,
      "Ġcod": 3108,
      "ulus": 3109,
      "ended": 3110,
      "Ġlayer": 3111,
      "CL": 3112,
      "Ġinclude": 3113,
      "Ġinvol": 3114,
      "65": 3115,
      "AV": 3116,
      "tative": 3117,
      "Ġenergy": 3118,
      "active": 3119,
      "ially": 3120,
      "ET": 3121,
      "ylated": 3122,
      "ĠÎ¼g": 3123,
      "âĪĴ": 3124,
      "Ġaltern": 3125,
      "Ġremains": 3126,
      "arily": 3127,
      "Ġfold": 3128,
      "SD": 3129,
      "Ġresc": 3130,
      "rix": 3131,
      "ĠBl": 3132,
      "Ġsus": 3133,
      "Ġlateral": 3134,
      "ordin": 3135,
      "Ġret": 3136,
      "Ġhyper": 3137,
      "vision": 3138,
      "Ther": 3139,
      "oy": 3140,
      "ĠWhen": 3141,
      "Ġanother": 3142,
      "merc": 3143,
      "apped": 3144,
      "col": 3145,
      "ertain": 3146,
      "Ġoverexp": 3147,
      "Ġrepeated": 3148,
      "Ġpool": 3149,
      "PD": 3150,
      "Ġconc": 3151,
      "SF": 3152,
      "ising": 3153,
      "Ġalone": 3154,
      "ĠEr": 3155,
      "Ġovernight": 3156,
      "Ġlater": 3157,
      "Ġmake": 3158,
      "WT": 3159,
      "less": 3160,
      "Ġconstruct": 3161,
      "Ġassembly": 3162,
      "Ġsource": 3163,
      "Thermo": 3164,
      "osomal": 3165,
      "Ps": 3166,
      "Ġspike": 3167,
      "Ġthough": 3168,
      "Ġposterior": 3169,
      "ĠProtein": 3170,
      "Ġmix": 3171,
      "arm": 3172,
      "tead": 3173,
      "leep": 3174,
      "Ġacet": 3175,
      "Ġlocalization": 3176,
      "Ġaccumulation": 3177,
      "verage": 3178,
      "left": 3179,
      "ĠWnt": 3180,
      "Ġable": 3181,
      "ashed": 3182,
      "EN": 3183,
      "Ġdam": 3184,
      "Ġsil": 3185,
      "Ġamplitude": 3186,
      "ĠÂµg": 3187,
      "NF": 3188,
      "Ġinst": 3189,
      "Ġprovides": 3190,
      "Ġgu": 3191,
      "ogenetic": 3192,
      "ĠPre": 3193,
      "Ġyeast": 3194,
      "Ġproduced": 3195,
      "Ġstem": 3196,
      "otide": 3197,
      "lear": 3198,
      "ney": 3199,
      "ists": 3200,
      "Ġalter": 3201,
      "Ġonto": 3202,
      "well": 3203,
      "Ġpercentage": 3204,
      "irst": 3205,
      "Ġloop": 3206,
      "%,": 3207,
      "Ġlead": 3208,
      "Ġtraj": 3209,
      "Ġappear": 3210,
      "Ġturn": 3211,
      "Ġillustr": 3212,
      "pite": 3213,
      "Ġobserv": 3214,
      "iver": 3215,
      "ano": 3216,
      "Ġelegans": 3217,
      "Ġinfl": 3218,
      "rief": 3219,
      "Ġfram": 3220,
      "link": 3221,
      "Ġstrategy": 3222,
      "CN": 3223,
      "Ġmedian": 3224,
      "Ġcomplete": 3225,
      "79": 3226,
      "oles": 3227,
      "Ġroom": 3228,
      "ĠAm": 3229,
      "ĠNaCl": 3230,
      "genic": 3231,
      "Ġvoltage": 3232,
      "ulating": 3233,
      "ĠUsing": 3234,
      "Ġglutam": 3235,
      "Ġfood": 3236,
      "alysis": 3237,
      "Ġasym": 3238,
      "Ġstages": 3239,
      "arl": 3240,
      "Ġdevelopmental": 3241,
      "ĠDes": 3242,
      "ables": 3243,
      "Ġcommun": 3244,
      "Ġreport": 3245,
      "Ġscale": 3246,
      "Ġmel": 3247,
      "ĠGl": 3248,
      "aling": 3249,
      "yclonal": 3250,
      "Ġcentrifug": 3251,
      "Ġdorsal": 3252,
      "ats": 3253,
      "Ġscreen": 3254,
      "Ġ48": 3255,
      "Ġmacroph": 3256,
      "oh": 3257,
      "ret": 3258,
      "'s": 3259,
      "Ġreconstruc": 3260,
      "Ġrad": 3261,
      "Ġspecifically": 3262,
      "Ġhippocamp": 3263,
      "Ġpositions": 3264,
      "Ġprotocol": 3265,
      "erestingly": 3266,
      "ĠÃħ": 3267,
      "isted": 3268,
      "ymph": 3269,
      "Ġhy": 3270,
      "Ġobservation": 3271,
      "Ġsystems": 3272,
      "Ġpass": 3273,
      "ĠSequence": 3274,
      "Ġcircu": 3275,
      "Ġdesign": 3276,
      "Ġhelp": 3277,
      "ĠInterestingly": 3278,
      "ler": 3279,
      "MA": 3280,
      "ash": 3281,
      "afish": 3282,
      "ebrafish": 3283,
      "Ald": 3284,
      "idence": 3285,
      "Ġheat": 3286,
      "Ġtyp": 3287,
      "ources": 3288,
      "Ġsensitivity": 3289,
      "oform": 3290,
      "pec": 3291,
      "lexa": 3292,
      "Ġproliferation": 3293,
      "Ġsuggested": 3294,
      "ighted": 3295,
      "ging": 3296,
      "Ġalign": 3297,
      "Ġsubst": 3298,
      "Ġcombined": 3299,
      "Ġtag": 3300,
      "Ġspace": 3301,
      "duces": 3302,
      "Ġregen": 3303,
      "cles": 3304,
      "Ġcapture": 3305,
      "arc": 3306,
      "Ġflies": 3307,
      "Ġrecogn": 3308,
      "Ġinteract": 3309,
      "Ġidenti": 3310,
      "Ġintracellular": 3311,
      "SS": 3312,
      "off": 3313,
      "Aldrich": 3314,
      "bound": 3315,
      "Ġstable": 3316,
      "Ġoutput": 3317,
      "Ġcontribute": 3318,
      "ĠCor": 3319,
      "utes": 3320,
      "Ġrecruit": 3321,
      "ĠSign": 3322,
      "Ġplotted": 3323,
      "free": 3324,
      "Ġcall": 3325,
      "Ġamount": 3326,
      "Seq": 3327,
      "Ġdistributions": 3328,
      "Ġprimers": 3329,
      "Ġplates": 3330,
      "Ġchromosome": 3331,
      "Ġextracted": 3332,
      "ĠChIP": 3333,
      "associated": 3334,
      "Ġmixed": 3335,
      "Ġng": 3336,
      "ĠMc": 3337,
      "Ġblack": 3338,
      "Ġnucleus": 3339,
      "Ġglob": 3340,
      "Ġinteresting": 3341,
      "vis": 3342,
      "ectivity": 3343,
      "Ġhum": 3344,
      "time": 3345,
      "rest": 3346,
      "Ġod": 3347,
      "ĠSam": 3348,
      "Ġpredict": 3349,
      "DM": 3350,
      "Ġrepresented": 3351,
      "Ġpanels": 3352,
      "ĠStatis": 3353,
      "Ġwid": 3354,
      "isting": 3355,
      "Ġful": 3356,
      "Ġsleep": 3357,
      "ached": 3358,
      "ĠMS": 3359,
      "Ġhand": 3360,
      "Ġspind": 3361,
      "Ġcorrect": 3362,
      "Ġkine": 3363,
      "Ġspik": 3364,
      "Ġleads": 3365,
      "Ġrelevant": 3366,
      "Ġelement": 3367,
      "ĠHEK": 3368,
      "ðĿ": 3369,
      "Ġelectr": 3370,
      "Ġunique": 3371,
      "Ġcour": 3372,
      "Ġallowed": 3373,
      "LR": 3374,
      "Ġsal": 3375,
      "Ġtransfected": 3376,
      "Î³": 3377,
      "dex": 3378,
      "Ġregression": 3379,
      "Ġcoll": 3380,
      "Ġmanner": 3381,
      "Ġfamily": 3382,
      "ĠRecombinant": 3383,
      "top": 3384,
      "ĠOther": 3385,
      "Ġdefects": 3386,
      "Ġobservations": 3387,
      "nat": 3388,
      "Ġion": 3389,
      "ĠDiscussion": 3390,
      "41": 3391,
      "Ġestimate": 3392,
      "69": 3393,
      "Ġgenotype": 3394,
      "Ġinflamm": 3395,
      "eg": 3396,
      "Ġhealth": 3397,
      "Ġcolor": 3398,
      "Ġincor": 3399,
      "ĠDi": 3400,
      "FL": 3401,
      "regulation": 3402,
      "Ġpolyclonal": 3403,
      "Ġcomplexes": 3404,
      "Ġsupplemented": 3405,
      "lices": 3406,
      "GA": 3407,
      "Ġchoice": 3408,
      "ĠDMS": 3409,
      "Ġresulted": 3410,
      "CM": 3411,
      "cor": 3412,
      "Ġdig": 3413,
      "ĠNo": 3414,
      "Ġweight": 3415,
      "asp": 3416,
      "ĠOver": 3417,
      "Ġlimited": 3418,
      "Ġclinical": 3419,
      "Ġfilter": 3420,
      "Ġreal": 3421,
      "ĠPr": 3422,
      "tle": 3423,
      "Ġmes": 3424,
      "ĠTechn": 3425,
      "Ġhome": 3426,
      "Ġdone": 3427,
      "Ġbran": 3428,
      "Ġcoe": 3429,
      "ĠNote": 3430,
      "hood": 3431,
      "side": 3432,
      "Ġdisplayed": 3433,
      "Ġparas": 3434,
      "Ġmicroscope": 3435,
      "fection": 3436,
      "Ġcop": 3437,
      "Ġaffected": 3438,
      "Ġmatrix": 3439,
      "ime": 3440,
      "Ġproxim": 3441,
      "Ġpossibility": 3442,
      "Ġbacterial": 3443,
      "ĠMT": 3444,
      "Ġway": 3445,
      "iter": 3446,
      "Ġvariable": 3447,
      "Ġtests": 3448,
      "Ġdisrup": 3449,
      "ĠGlu": 3450,
      "alk": 3451,
      "ensities": 3452,
      "ĠmL": 3453,
      "ury": 3454,
      "derived": 3455,
      "Ġdivid": 3456,
      "Ġcannot": 3457,
      "ĠâĪĨ": 3458,
      "Ġencoding": 3459,
      "Ġprofiles": 3460,
      "Ġpeaks": 3461,
      "ritic": 3462,
      "imer": 3463,
      "ĠBy": 3464,
      "ryo": 3465,
      "Ġcombination": 3466,
      "ror": 3467,
      "ĠSC": 3468,
      "Ġtranscripts": 3469,
      "apse": 3470,
      "Ġcomput": 3471,
      "Ġoutc": 3472,
      "Ġunderstanding": 3473,
      "Ġtraces": 3474,
      "Ġplay": 3475,
      "Ġterms": 3476,
      "usions": 3477,
      "ĠExperim": 3478,
      "Ġgeneration": 3479,
      "Ġuntil": 3480,
      "Ġrol": 3481,
      "ĠFirst": 3482,
      "Ġlymph": 3483,
      "Ġdatasets": 3484,
      "xin": 3485,
      "aches": 3486,
      "ĠCd": 3487,
      "gram": 3488,
      "Ġnecessary": 3489,
      "pf": 3490,
      "we": 3491,
      "Ġatten": 3492,
      "ologies": 3493,
      "Ġcorrelated": 3494,
      "SPR": 3495,
      "EF": 3496,
      "Ġreas": 3497,
      "Ġmeans": 3498,
      "Ġtrig": 3499,
      "Ġpolar": 3500,
      "ĠðĿ": 3501,
      "Ġput": 3502,
      "DP": 3503,
      "GT": 3504,
      "gin": 3505,
      "Ġtraining": 3506,
      "Ġfacil": 3507,
      "ĠIS": 3508,
      "Ġhydro": 3509,
      "Ġsubstanti": 3510,
      "alian": 3511,
      "Ġsmaller": 3512,
      "Ġdetails": 3513,
      "Ġsurvival": 3514,
      "55": 3515,
      "aser": 3516,
      "Ġzebrafish": 3517,
      "Ġabundance": 3518,
      "Ġpack": 3519,
      "ires": 3520,
      "Ġprevent": 3521,
      "Ġoriginal": 3522,
      "Ġtargeting": 3523,
      "Ġdenot": 3524,
      ")-": 3525,
      "Ġwhite": 3526,
      "function": 3527,
      "ĠCN": 3528,
      "cep": 3529,
      "Ġcultured": 3530,
      "Ġlarv": 3531,
      "Ġcore": 3532,
      "Ġexcit": 3533,
      "arrow": 3534,
      "ĠIC": 3535,
      "Ġatt": 3536,
      "ipher": 3537,
      "Ġcaused": 3538,
      "Ġcre": 3539,
      "Ġexplain": 3540,
      "ĠGenetic": 3541,
      "OC": 3542,
      "ĠSince": 3543,
      "Ġheart": 3544,
      "Ġaxon": 3545,
      "Ġ'": 3546,
      "axis": 3547,
      "Ġmarked": 3548,
      "Ġresearch": 3549,
      "Sigma": 3550,
      "Ġfully": 3551,
      "odes": 3552,
      "Ġsets": 3553,
      "Ġdepletion": 3554,
      "Ġlocated": 3555,
      "Ġvariability": 3556,
      "group": 3557,
      "ardi": 3558,
      "ĠMg": 3559,
      "Ġweak": 3560,
      "Ġunits": 3561,
      "ĠIs": 3562,
      "eled": 3563,
      "Ġconver": 3564,
      "atus": 3565,
      "orts": 3566,
      "Ġinvestigate": 3567,
      "Ġpubl": 3568,
      "ience": 3569,
      "ĠAlexa": 3570,
      "Ġcarried": 3571,
      "98": 3572,
      "rents": 3573,
      "Ġorigin": 3574,
      "ĠFL": 3575,
      "Ġaddress": 3576,
      "Ġutil": 3577,
      "Ġcurve": 3578,
      "expressing": 3579,
      "iences": 3580,
      "Ġstability": 3581,
      "ĠKit": 3582,
      "Ġmetabolic": 3583,
      "78": 3584,
      "Ġprepar": 3585,
      "paired": 3586,
      "ĠPI": 3587,
      "Ġvariant": 3588,
      "ĠAC": 3589,
      "ĠId": 3590,
      "Ġste": 3591,
      "Ġdomin": 3592,
      "Ġacquired": 3593,
      "ering": 3594,
      "ĠBe": 3595,
      "Ġorth": 3596,
      "Ġlineage": 3597,
      "Ġcut": 3598,
      "org": 3599,
      "Ġoften": 3600,
      "ĠSAR": 3601,
      "mercial": 3602,
      "dr": 3603,
      "Ġpup": 3604,
      "Ġtransport": 3605,
      "ĠSCR": 3606,
      "93": 3607,
      "Ġleading": 3608,
      "DA": 3609,
      "Ġlife": 3610,
      "ĠSec": 3611,
      "ogram": 3612,
      "ending": 3613,
      "Ġcompare": 3614,
      "Ġestimates": 3615,
      "Ġdeviation": 3616,
      "ns": 3617,
      "Ġach": 3618,
      "Ġgel": 3619,
      "Ġconcer": 3620,
      "tis": 3621,
      "ĠNC": 3622,
      "Ġsitu": 3623,
      "Ġbottom": 3624,
      "ĠCRI": 3625,
      "oderm": 3626,
      "ĠBio": 3627,
      "Ġcomputed": 3628,
      "formed": 3629,
      "Ġquality": 3630,
      "Ġserum": 3631,
      "Ġquestion": 3632,
      "Ġnear": 3633,
      "Ġevent": 3634,
      "Ġdendr": 3635,
      "ĠMo": 3636,
      "Ġlonger": 3637,
      "Ġbp": 3638,
      "apses": 3639,
      "Ġpy": 3640,
      "Ġflu": 3641,
      "ĠNAD": 3642,
      "03": 3643,
      "ducing": 3644,
      "ontal": 3645,
      "ery": 3646,
      "Ġeng": 3647,
      "Ġplaced": 3648,
      "Ġsubset": 3649,
      "erase": 3650,
      "Ġyou": 3651,
      "ameter": 3652,
      "asis": 3653,
      "Ġachie": 3654,
      "ĠmV": 3655,
      "osa": 3656,
      "51": 3657,
      "Ġparal": 3658,
      "Ġligand": 3659,
      "PP": 3660,
      "Ġdifferential": 3661,
      "Ġdimer": 3662,
      "hanol": 3663,
      "Ġtra": 3664,
      "Ġclose": 3665,
      "Ġidentity": 3666,
      "Ġrecombin": 3667,
      "irus": 3668,
      "Ġaxons": 3669,
      "ABA": 3670,
      "Ġcoordin": 3671,
      "Ġprepared": 3672,
      "Ġaffinity": 3673,
      "ĠMic": 3674,
      "lated": 3675,
      "Ġdiscuss": 3676,
      "Ġaccount": 3677,
      "atch": 3678,
      "Ġasp": 3679,
      "ĠIP": 3680,
      "Ġdiffic": 3681,
      "Ġcurves": 3682,
      "ĠCRISPR": 3683,
      "mCherry": 3684,
      "ero": 3685,
      "rophil": 3686,
      "Ġolig": 3687,
      "58": 3688,
      "Ġdelay": 3689,
      "Ġdamage": 3690,
      "Ġimmedi": 3691,
      "293": 3692,
      "Ġunderstand": 3693,
      "Ġfilam": 3694,
      "LS": 3695,
      "Ġoverlap": 3696,
      "Ġrelatively": 3697,
      "Ġlocus": 3698,
      "Ġimaged": 3699,
      "Ġinputs": 3700,
      "Ġsuccess": 3701,
      "ĠRel": 3702,
      "Ġheterogene": 3703,
      "ĠThey": 3704,
      "OP": 3705,
      "ĠPol": 3706,
      "Ġstrength": 3707,
      "stim": 3708,
      "Ġregulatory": 3709,
      "Ġexposed": 3710,
      "Ġclearly": 3711,
      "Ġinfluence": 3712,
      "Ġpelle": 3713,
      "Ġdependent": 3714,
      "Ġdendritic": 3715,
      "Ġinduce": 3716,
      "ĠStrain": 3717,
      "Ġplace": 3718,
      "Ġconfocal": 3719,
      "Ġmales": 3720,
      "Ġspecificity": 3721,
      "Ġseparate": 3722,
      "otin": 3723,
      "TL": 3724,
      "pe": 3725,
      "ĠTwo": 3726,
      "Ġrepresentation": 3727,
      "Ġsteps": 3728,
      "ytic": 3729,
      "Ġstart": 3730,
      "Ġdark": 3731,
      "ern": 3732,
      "Ġmiss": 3733,
      "Ġ21": 3734,
      "Ġscore": 3735,
      "Ġves": 3736,
      "Ġcytos": 3737,
      "Ġfuture": 3738,
      "Ġ90": 3739,
      "Ġ1999": 3740,
      "Ġprediction": 3741,
      "Ġappears": 3742,
      "Ġconducted": 3743,
      "Ġinterface": 3744,
      "Ġacids": 3745,
      "Ġcatal": 3746,
      "ication": 3747,
      "Ġapproximately": 3748,
      "Ġml": 3749,
      "ĠIndeed": 3750,
      "Ġcontains": 3751,
      "Ġdegrad": 3752,
      "ĠEqu": 3753,
      "Ġpeptides": 3754,
      "ining": 3755,
      "omato": 3756,
      "Ġregulate": 3757,
      "ĠWestern": 3758,
      "ips": 3759,
      "mouse": 3760,
      "Ġke": 3761,
      "Ġconnectivity": 3762,
      "ĠImage": 3763,
      "61": 3764,
      "Ġbone": 3765,
      "Ġunderlying": 3766,
      "Ġtransient": 3767,
      "Ġcontact": 3768,
      "Ġefficient": 3769,
      "Ġrank": 3770,
      "Ġcounts": 3771,
      "rin": 3772,
      "uct": 3773,
      "Ġmaintained": 3774,
      "Ġinterneur": 3775,
      "AM": 3776,
      "Ġnote": 3777,
      "Ġcytoplasm": 3778,
      "Ġnoise": 3779,
      "Ġtesting": 3780,
      "Ġoppos": 3781,
      "Ġrecruitment": 3782,
      "Ġbin": 3783,
      "Ġdepic": 3784,
      "Ġreach": 3785,
      "Ġlarvae": 3786,
      "aphase": 3787,
      "Ġtransferred": 3788,
      "Ġkinase": 3789,
      "ĠDM": 3790,
      "Ġpublished": 3791,
      "Ġknockout": 3792,
      "Ġyears": 3793,
      "Ġinternal": 3794,
      "Ġcenter": 3795,
      "Ġvariance": 3796,
      "API": 3797,
      "Ġhomolog": 3798,
      "Ġrisk": 3799,
      "Ġbasal": 3800,
      "Ġtaken": 3801,
      "Ġstabil": 3802,
      "pended": 3803,
      "Ġspect": 3804,
      "Ġproduce": 3805,
      "Ġsubunits": 3806,
      "pri": 3807,
      "odium": 3808,
      "02": 3809,
      "Ġpaired": 3810,
      "Ġhybrid": 3811,
      "ACS": 3812,
      "ascular": 3813,
      "Ġmaps": 3814,
      "Ġlabeling": 3815,
      "AN": 3816,
      "Ġdeveloped": 3817,
      "cre": 3818,
      "ĠUni": 3819,
      "Ġextracellular": 3820,
      "aim": 3821,
      "Ġrevers": 3822,
      "Ġgain": 3823,
      "troduction": 3824,
      "97": 3825,
      "Ġfeedback": 3826,
      "BC": 3827,
      "ĠSDS": 3828,
      "BL": 3829,
      "ĠEM": 3830,
      "incip": 3831,
      "Ġplasma": 3832,
      "Ġasymmet": 3833,
      "Ġplants": 3834,
      "Ġdifferentially": 3835,
      "bell": 3836,
      "Ġbacteria": 3837,
      "Ġ150": 3838,
      "Ġnatur": 3839,
      "Ġlate": 3840,
      "Ġconstructs": 3841,
      "Ġens": 3842,
      "ultaneous": 3843,
      "CAG": 3844,
      "ively": 3845,
      "key": 3846,
      "Ġvary": 3847,
      "Ġtext": 3848,
      "ital": 3849,
      "RN": 3850,
      "ison": 3851,
      "ho": 3852,
      "Ġarch": 3853,
      "str": 3854,
      "anning": 3855,
      "Ġreviewers": 3856,
      "osc": 3857,
      "ĠPK": 3858,
      "RET": 3859,
      "Ġfacilit": 3860,
      "itr": 3861,
      "licit": 3862,
      "Ġknow": 3863,
      "Ġprobe": 3864,
      "ĠSchematic": 3865,
      "Ġcomparing": 3866,
      "Ġperipher": 3867,
      "Ġsimulation": 3868,
      "ofluorescence": 3869,
      "RM": 3870,
      "ĠSm": 3871,
      "Ġtowards": 3872,
      "ĠVideo": 3873,
      "actin": 3874,
      "Ġembryonic": 3875,
      "Ġcultures": 3876,
      "ygen": 3877,
      "ĠTris": 3878,
      "Ġmelan": 3879,
      "ients": 3880,
      "ured": 3881,
      "ĠUAS": 3882,
      "AGE": 3883,
      "ĠSpec": 3884,
      "Ġaltered": 3885,
      "alling": 3886,
      "Ġoccurs": 3887,
      "ozygous": 3888,
      "Ġrest": 3889,
      "ĠÎ³": 3890,
      "AF": 3891,
      "ĠPe": 3892,
      "Ġsubunit": 3893,
      "Ġdifficult": 3894,
      "ĠeIF": 3895,
      "Ġinjury": 3896,
      "ĠCommercial": 3897,
      "Ġdegradation": 3898,
      "ĠGABA": 3899,
      "ĠTCR": 3900,
      "olin": 3901,
      "Ġvel": 3902,
      "ĠWith": 3903,
      "Ġcompart": 3904,
      "tailed": 3905,
      "Ġextent": 3906,
      "upper": 3907,
      "Ġexhibited": 3908,
      "ĠNM": 3909,
      "Ġmonth": 3910,
      "Ġ1998": 3911,
      "ĠBec": 3912,
      "Ġlimit": 3913,
      "DH": 3914,
      "Ġbest": 3915,
      "ĠStatistical": 3916,
      "RF": 3917,
      "77": 3918,
      "Ġlung": 3919,
      "vitrogen": 3920,
      "ĠTRP": 3921,
      "Ġ35": 3922,
      "ĠAg": 3923,
      "Ġve": 3924,
      "Ġwhy": 3925,
      "Ġnetworks": 3926,
      "ste": 3927,
      "osen": 3928,
      "plate": 3929,
      "amine": 3930,
      "Ġpoly": 3931,
      "Ġversion": 3932,
      "hang": 3933,
      "Ġmen": 3934,
      "Ġclon": 3935,
      "tagged": 3936,
      "Ġfat": 3937,
      "ĠAAV": 3938,
      "Th": 3939,
      "ĠWang": 3940,
      "aces": 3941,
      "Ġinhibitory": 3942,
      "Ġestablished": 3943,
      "08": 3944,
      "Ġprimer": 3945,
      "ĠSer": 3946,
      "otal": 3947,
      "Ġkb": 3948,
      "ĠÏĥ": 3949,
      "endi": 3950,
      "Ġproposed": 3951,
      "ogether": 3952,
      "udent": 3953,
      "Ġcoh": 3954,
      "ĠOr": 3955,
      "Ġknockdown": 3956,
      "Ġenhanced": 3957,
      "DC": 3958,
      "hyd": 3959,
      "Ġpix": 3960,
      "used": 3961,
      "Ġincubation": 3962,
      "Ġretinal": 3963,
      "Ġvesic": 3964,
      "59": 3965,
      "Ġsynapses": 3966,
      "fr": 3967,
      "ĠSl": 3968,
      "Ġ300": 3969,
      "Ġaccuracy": 3970,
      "Ġphysiological": 3971,
      "Ġgray": 3972,
      "GE": 3973,
      "IL": 3974,
      "Ġinner": 3975,
      "oratory": 3976,
      "Ġdot": 3977,
      "Ġparticularly": 3978,
      "ued": 3979,
      "ument": 3980,
      "zed": 3981,
      "phosph": 3982,
      "****": 3983,
      "Ġexper": 3984,
      "Ġquantitative": 3985,
      "Ġtet": 3986,
      "Ġphyl": 3987,
      "ai": 3988,
      "Ġunclear": 3989,
      "Ġhypothes": 3990,
      "Ġra": 3991,
      "Ġcham": 3992,
      "Ġcord": 3993,
      "Ġcarb": 3994,
      "ĠED": 3995,
      "lease": 3996,
      "ĠGiven": 3997,
      "Ġloading": 3998,
      "ĠError": 3999,
      "Ġsymmet": 4000,
      "Ġmacrophages": 4001,
      "Ġbase": 4002,
      "Ġ28": 4003,
      "Ġisoform": 4004,
      "Ġsecre": 4005,
      "Ġ%": 4006,
      "Ġshape": 4007,
      "Ġclar": 4008,
      "Ca": 4009,
      "Ġneigh": 4010,
      "Ġcontained": 4011,
      "Ġinstead": 4012,
      "ĠPP": 4013,
      "Ġ80": 4014,
      "Ġappropri": 4015,
      "endix": 4016,
      "scill": 4017,
      "Ġbu": 4018,
      "Ġmode": 4019,
      "usted": 4020,
      "ĠNext": 4021,
      "Ġsimultaneous": 4022,
      "Ġ22": 4023,
      "Ġroles": 4024,
      "Ġeye": 4025,
      "Ġelong": 4026,
      "Ġcontinuous": 4027,
      "ĠTE": 4028,
      "Ġdivision": 4029,
      "ulf": 4030,
      "Ġsymptom": 4031,
      "64": 4032,
      "Ġinterval": 4033,
      "Ġalleles": 4034,
      "Ġventral": 4035,
      "Ġseems": 4036,
      "TM": 4037,
      "Ġfemales": 4038,
      "Ġplastic": 4039,
      "embran": 4040,
      "RNAs": 4041,
      "Ġgradient": 4042,
      "ĠcDNA": 4043,
      "Ġastro": 4044,
      "Ġregulated": 4045,
      "ĠMean": 4046,
      "ufact": 4047,
      "labeled": 4048,
      "Ġglobal": 4049,
      "Ġaligned": 4050,
      "ĠIgG": 4051,
      "Ġincorpor": 4052,
      "ings": 4053,
      "Ġbeads": 4054,
      "Ġinvestigated": 4055,
      "Ġdegree": 4056,
      "Ġ);": 4057,
      "Ġdiversity": 4058,
      "Ġpotentially": 4059,
      "Ġagree": 4060,
      "omics": 4061,
      "Ġhumans": 4062,
      "most": 4063,
      "ĠID": 4064,
      "eptide": 4065,
      "Ġspindle": 4066,
      "Ġfast": 4067,
      "akes": 4068,
      "Ġdecision": 4069,
      "Ġcharacterized": 4070,
      "Ġoscill": 4071,
      "Ġprofile": 4072,
      "Ġtw": 4073,
      "Ġself": 4074,
      "oded": 4075,
      "Ġchall": 4076,
      "Ġseparated": 4077,
      "mp": 4078,
      "Ġorientation": 4079,
      "Ġspinal": 4080,
      "Ġ70": 4081,
      "Ġlargely": 4082,
      "Ġaveraged": 4083,
      "riefly": 4084,
      "Ġub": 4085,
      "Ġlaser": 4086,
      "ocity": 4087,
      "ĠDAPI": 4088,
      "PS": 4089,
      "Ġcontribution": 4090,
      "Ġmorphology": 4091,
      "ette": 4092,
      "seud": 4093,
      "Ġleg": 4094,
      "recip": 4095
    },
    "merges": [
      [
        "Ġ",
        "a"
      ],
      [
        "i",
        "n"
      ],
      [
        "Ġ",
        "t"
      ],
      [
        "r",
        "e"
      ],
      [
        "o",
        "n"
      ],
      [
        "h",
        "e"
      ],
      [
        "a",
        "t"
      ],
      [
        "e",
        "n"
      ],
      [
        "Ġ",
        "s"
      ],
      [
        "Ġt",
        "he"
      ],
      [
        "e",
        "r"
      ],
      [
        "e",
        "d"
      ],
      [
        "Ġ",
        "c"
      ],
      [
        "Ġ",
        "o"
      ],
      [
        "Ġ",
        "in"
      ],
      [
        "a",
        "l"
      ],
      [
        "t",
        "i"
      ],
      [
        "Ġ",
        "p"
      ],
      [
        "Ġ",
        "w"
      ],
      [
        "e",
        "s"
      ],
      [
        "Ġa",
        "n"
      ],
      [
        "o",
        "r"
      ],
      [
        "Ġ",
        "("
      ],
      [
        "Ġ",
        "m"
      ],
      [
        "Ġ",
        "f"
      ],
      [
        "Ġo",
        "f"
      ],
      [
        "a",
        "n"
      ],
      [
        "i",
        "t"
      ],
      [
        "i",
        "s"
      ],
      [
        "Ġ",
        "d"
      ],
      [
        "r",
        "o"
      ],
      [
        "Ġ",
        "e"
      ],
      [
        "Ġan",
        "d"
      ],
      [
        "in",
        "g"
      ],
      [
        "Ġ",
        "b"
      ],
      [
        "l",
        "e"
      ],
      [
        "i",
        "c"
      ],
      [
        "i",
        "on"
      ],
      [
        "a",
        "r"
      ],
      [
        "a",
        "s"
      ],
      [
        "Ġ",
        "re"
      ],
      [
        "e",
        "l"
      ],
      [
        "i",
        "g"
      ],
      [
        "en",
        "t"
      ],
      [
        "Ġt",
        "o"
      ],
      [
        "at",
        "ion"
      ],
      [
        "Ġ",
        "2"
      ],
      [
        "Ġ",
        ")"
      ],
      [
        "u",
        "s"
      ],
      [
        "Ġ",
        "n"
      ],
      [
        "Ġt",
        "h"
      ],
      [
        "u",
        "re"
      ],
      [
        "Ġ",
        "T"
      ],
      [
        "u",
        "l"
      ],
      [
        "e",
        "c"
      ],
      [
        "ti",
        "on"
      ],
      [
        "a",
        "c"
      ],
      [
        "Ġa",
        "l"
      ],
      [
        "o",
        "m"
      ],
      [
        "Ġ",
        "F"
      ],
      [
        "i",
        "m"
      ],
      [
        "Ġ",
        "l"
      ],
      [
        "Ġ",
        "1"
      ],
      [
        "u",
        "r"
      ],
      [
        "e",
        "re"
      ],
      [
        "e",
        "t"
      ],
      [
        "o",
        "l"
      ],
      [
        "Ġ",
        "C"
      ],
      [
        "o",
        "t"
      ],
      [
        "l",
        "y"
      ],
      [
        "Ġ",
        "S"
      ],
      [
        "Ġ",
        "A"
      ],
      [
        "Ġ",
        "h"
      ],
      [
        "it",
        "h"
      ],
      [
        "u",
        "n"
      ],
      [
        "i",
        "d"
      ],
      [
        "o",
        "s"
      ],
      [
        "Ġ",
        "g"
      ],
      [
        "ig",
        "ure"
      ],
      [
        "Ġf",
        "or"
      ],
      [
        "Ġw",
        "ith"
      ],
      [
        "Ġ2",
        "0"
      ],
      [
        "Ġc",
        "on"
      ],
      [
        "u",
        "t"
      ],
      [
        "re",
        "s"
      ],
      [
        "â",
        "Ģ"
      ],
      [
        "o",
        "w"
      ],
      [
        "el",
        "l"
      ],
      [
        "Ġe",
        "x"
      ],
      [
        "t",
        "er"
      ],
      [
        "i",
        "f"
      ],
      [
        "c",
        "e"
      ],
      [
        "t",
        "r"
      ],
      [
        "v",
        "e"
      ],
      [
        "i",
        "l"
      ],
      [
        "a",
        "m"
      ],
      [
        "Ġth",
        "at"
      ],
      [
        "Ġp",
        "ro"
      ],
      [
        "Ġe",
        "t"
      ],
      [
        "Ġ",
        "v"
      ],
      [
        ".",
        ","
      ],
      [
        "Ġs",
        "u"
      ],
      [
        "Ġ",
        "is"
      ],
      [
        "at",
        "ed"
      ],
      [
        "Ġa",
        "s"
      ],
      [
        "Ġ",
        "P"
      ],
      [
        "ĠF",
        "igure"
      ],
      [
        "Ġ",
        "I"
      ],
      [
        "o",
        "d"
      ],
      [
        "m",
        "ent"
      ],
      [
        "Ġw",
        "ere"
      ],
      [
        "Ġ)",
        "."
      ],
      [
        "Ġ",
        "M"
      ],
      [
        "a",
        "in"
      ],
      [
        "t",
        "s"
      ],
      [
        "a",
        "g"
      ],
      [
        "o",
        "c"
      ],
      [
        "p",
        "p"
      ],
      [
        "Ġ",
        "D"
      ],
      [
        "Ġc",
        "ell"
      ],
      [
        "Ġ",
        "on"
      ],
      [
        "Ġ",
        "R"
      ],
      [
        "u",
        "c"
      ],
      [
        "at",
        "e"
      ],
      [
        "Ġs",
        "t"
      ],
      [
        "Ġ20",
        "1"
      ],
      [
        "ĠT",
        "he"
      ],
      [
        "s",
        "e"
      ],
      [
        "Ġw",
        "as"
      ],
      [
        "t",
        "ed"
      ],
      [
        "Ġa",
        "c"
      ],
      [
        "ro",
        "m"
      ],
      [
        "Ġb",
        "y"
      ],
      [
        "Ġex",
        "p"
      ],
      [
        "u",
        "m"
      ],
      [
        "a",
        "b"
      ],
      [
        "Ġ",
        "B"
      ],
      [
        "it",
        "y"
      ],
      [
        "Ġ",
        "H"
      ],
      [
        "r",
        "i"
      ],
      [
        "q",
        "u"
      ],
      [
        "v",
        "er"
      ],
      [
        "he",
        "r"
      ],
      [
        "t",
        "e"
      ],
      [
        "Ġre",
        "s"
      ],
      [
        "i",
        "r"
      ],
      [
        "Ġb",
        "e"
      ],
      [
        "0",
        "0"
      ],
      [
        "y",
        "s"
      ],
      [
        "ti",
        "c"
      ],
      [
        "Ġa",
        "re"
      ],
      [
        "Ġ",
        "G"
      ],
      [
        "Ġa",
        "t"
      ],
      [
        "r",
        "an"
      ],
      [
        "Ġ",
        "3"
      ],
      [
        "Ġc",
        "om"
      ],
      [
        "Ġo",
        "r"
      ],
      [
        "a",
        "d"
      ],
      [
        "Ġ",
        "E"
      ],
      [
        "o",
        "p"
      ],
      [
        "Ġf",
        "rom"
      ],
      [
        "Ġ",
        "N"
      ],
      [
        "Ġ",
        "us"
      ],
      [
        "a",
        "p"
      ],
      [
        "Ġ",
        "W"
      ],
      [
        "Ġs",
        "h"
      ],
      [
        "res",
        "s"
      ],
      [
        "Ġ",
        ";"
      ],
      [
        "Ġd",
        "e"
      ],
      [
        "i",
        "b"
      ],
      [
        "Ġg",
        "en"
      ],
      [
        "Ġn",
        "e"
      ],
      [
        "o",
        "g"
      ],
      [
        ")",
        "."
      ],
      [
        "d",
        "i"
      ],
      [
        "an",
        "t"
      ],
      [
        "Ġcell",
        "s"
      ],
      [
        "Ġcom",
        "p"
      ],
      [
        "i",
        "z"
      ],
      [
        "Ġs",
        "e"
      ],
      [
        "a",
        "y"
      ],
      [
        "in",
        "e"
      ],
      [
        "Ġ",
        "L"
      ],
      [
        "p",
        "l"
      ],
      [
        "Ġ",
        "r"
      ],
      [
        "un",
        "d"
      ],
      [
        "Ġw",
        "e"
      ],
      [
        "ig",
        "h"
      ],
      [
        "Ġc",
        "h"
      ],
      [
        "re",
        "d"
      ],
      [
        "f",
        "f"
      ],
      [
        "ti",
        "v"
      ],
      [
        "Ġ",
        "5"
      ],
      [
        "Ġ",
        "im"
      ],
      [
        "Ġ",
        "4"
      ],
      [
        "Ġs",
        "p"
      ],
      [
        "N",
        "A"
      ],
      [
        "ig",
        "n"
      ],
      [
        "Ġw",
        "h"
      ],
      [
        "le",
        "ment"
      ],
      [
        "on",
        "s"
      ],
      [
        "o",
        "us"
      ],
      [
        "Ġd",
        "is"
      ],
      [
        "or",
        "m"
      ],
      [
        "s",
        "t"
      ],
      [
        "at",
        "i"
      ],
      [
        "d",
        "ing"
      ],
      [
        "Ġsu",
        "pp"
      ],
      [
        "l",
        "u"
      ],
      [
        "as",
        "e"
      ],
      [
        "y",
        "p"
      ],
      [
        "o",
        "re"
      ],
      [
        "es",
        "s"
      ],
      [
        "âĢ",
        "Ķ"
      ],
      [
        "Ġp",
        "er"
      ],
      [
        "Ġ",
        "0"
      ],
      [
        "Ġ",
        "en"
      ],
      [
        "ere",
        "n"
      ],
      [
        "Ġ",
        "le"
      ],
      [
        "Ġn",
        "ot"
      ],
      [
        "c",
        "h"
      ],
      [
        "at",
        "a"
      ],
      [
        "f",
        "eren"
      ],
      [
        "if",
        "ic"
      ],
      [
        "al",
        "ly"
      ],
      [
        "en",
        "ce"
      ],
      [
        "âĢ",
        "ĵ"
      ],
      [
        "ran",
        "s"
      ],
      [
        "Ġsh",
        "ow"
      ],
      [
        "ation",
        "s"
      ],
      [
        "ĠI",
        "n"
      ],
      [
        "Ġ",
        "="
      ],
      [
        "Ġ",
        ","
      ],
      [
        "Ġin",
        "c"
      ],
      [
        "er",
        "s"
      ],
      [
        "en",
        "s"
      ],
      [
        "tion",
        "s"
      ],
      [
        "v",
        "el"
      ],
      [
        "e",
        "m"
      ],
      [
        "ic",
        "h"
      ],
      [
        "t",
        "h"
      ],
      [
        "Ġth",
        "is"
      ],
      [
        "Ġc",
        "o"
      ],
      [
        "Ġd",
        "if"
      ],
      [
        "ac",
        "h"
      ],
      [
        "d",
        "e"
      ],
      [
        "Ġt",
        "rans"
      ],
      [
        "d",
        "uc"
      ],
      [
        "es",
        "t"
      ],
      [
        "Ġexp",
        "ress"
      ],
      [
        "Ġcon",
        "t"
      ],
      [
        "Ġsupp",
        "lement"
      ],
      [
        ")",
        ","
      ],
      [
        "t",
        "her"
      ],
      [
        "Ġ",
        "O"
      ],
      [
        "Ġm",
        "od"
      ],
      [
        "Ġre",
        "p"
      ],
      [
        "ec",
        "t"
      ],
      [
        "Ġs",
        "ign"
      ],
      [
        "Ġd",
        "ata"
      ],
      [
        "u",
        "p"
      ],
      [
        "Ġa",
        "d"
      ],
      [
        "b",
        "s"
      ],
      [
        "f",
        "igure"
      ],
      [
        "or",
        "s"
      ],
      [
        "Ġ",
        "Î"
      ],
      [
        "le",
        "c"
      ],
      [
        "Ġan",
        "al"
      ],
      [
        "i",
        "p"
      ],
      [
        "et",
        "w"
      ],
      [
        "Ġ",
        "k"
      ],
      [
        "Ġm",
        "ic"
      ],
      [
        "ag",
        "e"
      ],
      [
        "Ġdif",
        "feren"
      ],
      [
        "Ġ",
        "K"
      ],
      [
        "v",
        "i"
      ],
      [
        "v",
        "ed"
      ],
      [
        "at",
        "es"
      ],
      [
        "f",
        "orm"
      ],
      [
        "p",
        "h"
      ],
      [
        "Ġus",
        "ing"
      ],
      [
        "Ġre",
        "g"
      ],
      [
        "Ġp",
        "re"
      ],
      [
        "Ġs",
        "tr"
      ],
      [
        "i",
        "es"
      ],
      [
        "Ġp",
        "l"
      ],
      [
        "en",
        "ti"
      ],
      [
        "u",
        "g"
      ],
      [
        "en",
        "d"
      ],
      [
        "s",
        "o"
      ],
      [
        "te",
        "in"
      ],
      [
        "Ġ20",
        "0"
      ],
      [
        "âĢ",
        "Ļ"
      ],
      [
        "Ġin",
        "t"
      ],
      [
        "Ġp",
        "ar"
      ],
      [
        "g",
        "e"
      ],
      [
        "igh",
        "t"
      ],
      [
        "Ġne",
        "ur"
      ],
      [
        "Ġin",
        "ter"
      ],
      [
        "Ġc",
        "l"
      ],
      [
        "Ġ",
        "it"
      ],
      [
        "ic",
        "al"
      ],
      [
        "Ġ",
        "6"
      ],
      [
        "Ġwh",
        "ich"
      ],
      [
        "Ġres",
        "p"
      ],
      [
        "e",
        "en"
      ],
      [
        "res",
        "ent"
      ],
      [
        "Ġw",
        "he"
      ],
      [
        "ro",
        "s"
      ],
      [
        "Ġ)",
        ","
      ],
      [
        "ti",
        "ve"
      ],
      [
        "p",
        "t"
      ],
      [
        "v",
        "id"
      ],
      [
        "el",
        "y"
      ],
      [
        "u",
        "b"
      ],
      [
        "Ġp",
        "os"
      ],
      [
        "etw",
        "een"
      ],
      [
        "ul",
        "d"
      ],
      [
        "Ġc",
        "or"
      ],
      [
        "c",
        "ri"
      ],
      [
        "Ġ",
        "â"
      ],
      [
        "Ġb",
        "etween"
      ],
      [
        "ĠT",
        "h"
      ],
      [
        "Ġ",
        "V"
      ],
      [
        "Ġas",
        "s"
      ],
      [
        "l",
        "ow"
      ],
      [
        "un",
        "c"
      ],
      [
        "ar",
        "y"
      ],
      [
        "Ġ",
        "he"
      ],
      [
        "Ġac",
        "tiv"
      ],
      [
        "al",
        "s"
      ],
      [
        "Ġm",
        "e"
      ],
      [
        "ati",
        "ve"
      ],
      [
        "an",
        "d"
      ],
      [
        "ti",
        "m"
      ],
      [
        "p",
        "le"
      ],
      [
        "ac",
        "t"
      ],
      [
        "Ġ1",
        "0"
      ],
      [
        "Ġpro",
        "tein"
      ],
      [
        "Ġ",
        "Â"
      ],
      [
        "en",
        "c"
      ],
      [
        "y",
        "n"
      ],
      [
        "Ġre",
        "c"
      ],
      [
        "Ġanal",
        "ys"
      ],
      [
        "a",
        "k"
      ],
      [
        "Ġe",
        "ach"
      ],
      [
        "an",
        "ce"
      ],
      [
        "or",
        "y"
      ],
      [
        "is",
        "t"
      ],
      [
        "on",
        "g"
      ],
      [
        "ent",
        "s"
      ],
      [
        "ro",
        "l"
      ],
      [
        "om",
        "e"
      ],
      [
        "Ġcon",
        "s"
      ],
      [
        "as",
        "ed"
      ],
      [
        "u",
        "e"
      ],
      [
        "er",
        "m"
      ],
      [
        "Ġs",
        "am"
      ],
      [
        "ab",
        "le"
      ],
      [
        "ĠW",
        "e"
      ],
      [
        "ar",
        "i"
      ],
      [
        "Ġexpress",
        "ion"
      ],
      [
        "Ġmod",
        "el"
      ],
      [
        "or",
        "t"
      ],
      [
        "Ġt",
        "im"
      ],
      [
        "w",
        "o"
      ],
      [
        "Ġm",
        "ut"
      ],
      [
        "ac",
        "k"
      ],
      [
        "Ġt",
        "r"
      ],
      [
        "Ġe",
        "ff"
      ],
      [
        "Ġthe",
        "se"
      ],
      [
        "Ġd",
        "et"
      ],
      [
        "Ġus",
        "ed"
      ],
      [
        "Ġ",
        "un"
      ],
      [
        "Ġd",
        "i"
      ],
      [
        "ul",
        "ation"
      ],
      [
        "i",
        "ed"
      ],
      [
        "Ġ",
        "U"
      ],
      [
        "ul",
        "ar"
      ],
      [
        "er",
        "im"
      ],
      [
        "Ġm",
        "et"
      ],
      [
        "ec",
        "ted"
      ],
      [
        "Ġin",
        "d"
      ],
      [
        "r",
        "y"
      ],
      [
        "e",
        "p"
      ],
      [
        "Ġ",
        "-"
      ],
      [
        "o",
        "und"
      ],
      [
        "ol",
        "og"
      ],
      [
        "Ġp",
        "h"
      ],
      [
        "Ġc",
        "an"
      ],
      [
        "Ġh",
        "a"
      ],
      [
        "Ġt",
        "wo"
      ],
      [
        "Ġa",
        "pp"
      ],
      [
        "u",
        "d"
      ],
      [
        "i",
        "a"
      ],
      [
        "as",
        "t"
      ],
      [
        "al",
        "l"
      ],
      [
        "i",
        "k"
      ],
      [
        "Ġ",
        "7"
      ],
      [
        "Ġres",
        "ul"
      ],
      [
        "Ġal",
        "so"
      ],
      [
        "Ġg",
        "ro"
      ],
      [
        "Ġch",
        "an"
      ],
      [
        "re",
        "e"
      ],
      [
        "Ġm",
        "o"
      ],
      [
        "u",
        "tion"
      ],
      [
        "Ġsu",
        "b"
      ],
      [
        "Ġexp",
        "erim"
      ],
      [
        "u",
        "al"
      ],
      [
        "Ġa",
        "b"
      ],
      [
        "Ġmic",
        "e"
      ],
      [
        "Ġanalys",
        "is"
      ],
      [
        "Ġal",
        "l"
      ],
      [
        "at",
        "ing"
      ],
      [
        "Ġind",
        "ic"
      ],
      [
        "ar",
        "g"
      ],
      [
        "1",
        "0"
      ],
      [
        "2",
        "0"
      ],
      [
        "i",
        "le"
      ],
      [
        "t",
        "ure"
      ],
      [
        "yp",
        "e"
      ],
      [
        "ug",
        "h"
      ],
      [
        "o",
        "ur"
      ],
      [
        "ĠTh",
        "is"
      ],
      [
        "o",
        "x"
      ],
      [
        "Ġcont",
        "rol"
      ],
      [
        "Ġsp",
        "ec"
      ],
      [
        "ar",
        "d"
      ],
      [
        "Ġs",
        "im"
      ],
      [
        "Ġ",
        "+"
      ],
      [
        "re",
        "c"
      ],
      [
        "ot",
        "h"
      ],
      [
        "il",
        "l"
      ],
      [
        "Ġc",
        "ol"
      ],
      [
        "Ġha",
        "ve"
      ],
      [
        "h",
        "an"
      ],
      [
        "Ġ",
        "."
      ],
      [
        "Ġb",
        "ut"
      ],
      [
        "Ġp",
        "at"
      ],
      [
        "as",
        "s"
      ],
      [
        "i",
        "al"
      ],
      [
        "f",
        "ter"
      ],
      [
        "y",
        "l"
      ],
      [
        "at",
        "er"
      ],
      [
        "Ġinc",
        "re"
      ],
      [
        "os",
        "t"
      ],
      [
        "Ġs",
        "c"
      ],
      [
        "p",
        "end"
      ],
      [
        "b",
        "er"
      ],
      [
        "iz",
        "ed"
      ],
      [
        "on",
        "d"
      ],
      [
        "re",
        "n"
      ],
      [
        "Ġan",
        "ti"
      ],
      [
        "Ġle",
        "vel"
      ],
      [
        "he",
        "d"
      ],
      [
        "Ġim",
        "p"
      ],
      [
        "Ġo",
        "bs"
      ],
      [
        "Ġneur",
        "ons"
      ],
      [
        "Ġ",
        "ro"
      ],
      [
        "F",
        "P"
      ],
      [
        "in",
        "ding"
      ],
      [
        "u",
        "es"
      ],
      [
        "ur",
        "ing"
      ],
      [
        "il",
        "ity"
      ],
      [
        "Ġa",
        "m"
      ],
      [
        "ec",
        "tion"
      ],
      [
        "Ġobs",
        "er"
      ],
      [
        "g",
        "g"
      ],
      [
        "Ġo",
        "ver"
      ],
      [
        "di",
        "tion"
      ],
      [
        "y",
        "m"
      ],
      [
        "id",
        "e"
      ],
      [
        "unc",
        "tion"
      ],
      [
        "Ġm",
        "in"
      ],
      [
        "Ġgen",
        "e"
      ],
      [
        "Ġtim",
        "e"
      ],
      [
        "o",
        "uld"
      ],
      [
        "c",
        "ent"
      ],
      [
        "Ġe",
        "v"
      ],
      [
        "t",
        "ing"
      ],
      [
        "Ġ",
        "qu"
      ],
      [
        "Ġsign",
        "ific"
      ],
      [
        "i",
        "v"
      ],
      [
        "on",
        "e"
      ],
      [
        "os",
        "e"
      ],
      [
        "it",
        "e"
      ],
      [
        "ain",
        "ed"
      ],
      [
        "o",
        "ut"
      ],
      [
        "c",
        "l"
      ],
      [
        "Ġv",
        "ari"
      ],
      [
        "i",
        "tion"
      ],
      [
        "Ġre",
        "l"
      ],
      [
        "enti",
        "f"
      ],
      [
        "Ġgen",
        "es"
      ],
      [
        "Ġdifferen",
        "t"
      ],
      [
        "Ġd",
        "es"
      ],
      [
        "an",
        "ts"
      ],
      [
        "Ġn",
        "um"
      ],
      [
        "Ġo",
        "ther"
      ],
      [
        "Ġv",
        "al"
      ],
      [
        "he",
        "s"
      ],
      [
        "g",
        "en"
      ],
      [
        "Ġper",
        "form"
      ],
      [
        "Ġac",
        "c"
      ],
      [
        "duc",
        "ed"
      ],
      [
        "Ġin",
        "f"
      ],
      [
        "oc",
        "k"
      ],
      [
        "ain",
        "ing"
      ],
      [
        "Ġa",
        "r"
      ],
      [
        "Ġ1",
        "9"
      ],
      [
        "Ġb",
        "oth"
      ],
      [
        "oc",
        "i"
      ],
      [
        "R",
        "NA"
      ],
      [
        "Ġn",
        "o"
      ],
      [
        "ros",
        "s"
      ],
      [
        "qu",
        "enc"
      ],
      [
        "Ġthe",
        "ir"
      ],
      [
        "ed",
        "i"
      ],
      [
        "Ġh",
        "igh"
      ],
      [
        "y",
        "t"
      ],
      [
        "h",
        "ib"
      ],
      [
        "ec",
        "ts"
      ],
      [
        "ĠA",
        "n"
      ],
      [
        "A",
        "T"
      ],
      [
        "Ġshow",
        "n"
      ],
      [
        "Ġf",
        "ol"
      ],
      [
        "Ġ",
        "und"
      ],
      [
        "Ġâ",
        "Ī"
      ],
      [
        "Ġ",
        "id"
      ],
      [
        "at",
        "ure"
      ],
      [
        "Ġm",
        "ore"
      ],
      [
        "Ġd",
        "uring"
      ],
      [
        "tr",
        "ib"
      ],
      [
        "iz",
        "ation"
      ],
      [
        "Ġint",
        "o"
      ],
      [
        "Ġsignific",
        "ant"
      ],
      [
        "a",
        "red"
      ],
      [
        "ĠF",
        "or"
      ],
      [
        "Ġ",
        "8"
      ],
      [
        "Ġgen",
        "er"
      ],
      [
        "an",
        "ti"
      ],
      [
        "ĠT",
        "o"
      ],
      [
        "Ġb",
        "l"
      ],
      [
        "ow",
        "n"
      ],
      [
        "m",
        "b"
      ],
      [
        "ac",
        "e"
      ],
      [
        "Ġon",
        "e"
      ],
      [
        "is",
        "s"
      ],
      [
        "Ġactiv",
        "ity"
      ],
      [
        "Ġa",
        "fter"
      ],
      [
        "A",
        "C"
      ],
      [
        "i",
        "x"
      ],
      [
        "f",
        "t"
      ],
      [
        "ag",
        "es"
      ],
      [
        "og",
        "en"
      ],
      [
        "Ġrep",
        "resent"
      ],
      [
        "A",
        "G"
      ],
      [
        "in",
        "ed"
      ],
      [
        "ion",
        "s"
      ],
      [
        "Ġa",
        "ut"
      ],
      [
        "Ġf",
        "unction"
      ],
      [
        "Ġth",
        "an"
      ],
      [
        "Ġm",
        "an"
      ],
      [
        "tic",
        "al"
      ],
      [
        "ul",
        "ated"
      ],
      [
        "ter",
        "n"
      ],
      [
        "Ġund",
        "er"
      ],
      [
        "in",
        "al"
      ],
      [
        "a",
        "ys"
      ],
      [
        "a",
        "il"
      ],
      [
        "o",
        "res"
      ],
      [
        "i",
        "ti"
      ],
      [
        "C",
        "R"
      ],
      [
        "Ġ",
        "y"
      ],
      [
        "ere",
        "d"
      ],
      [
        "Ġme",
        "as"
      ],
      [
        "p",
        "er"
      ],
      [
        "te",
        "m"
      ],
      [
        "*",
        "*"
      ],
      [
        "o",
        "in"
      ],
      [
        "he",
        "n"
      ],
      [
        "Ġmet",
        "h"
      ],
      [
        "Ġo",
        "ur"
      ],
      [
        "pl",
        "ic"
      ],
      [
        "e",
        "w"
      ],
      [
        "Ġl",
        "oc"
      ],
      [
        "t",
        "al"
      ],
      [
        "m",
        "o"
      ],
      [
        "ar",
        "k"
      ],
      [
        "i",
        "ve"
      ],
      [
        "pend",
        "ent"
      ],
      [
        "c",
        "es"
      ],
      [
        "an",
        "s"
      ],
      [
        "a",
        "us"
      ],
      [
        "or",
        "k"
      ],
      [
        "00",
        "0"
      ],
      [
        "le",
        "x"
      ],
      [
        "Ġd",
        "ec"
      ],
      [
        "uc",
        "le"
      ],
      [
        "al",
        "e"
      ],
      [
        "vi",
        "ous"
      ],
      [
        "Ġl",
        "ine"
      ],
      [
        "a",
        "re"
      ],
      [
        "Ġd",
        "o"
      ],
      [
        "Ġsu",
        "gg"
      ],
      [
        "Ġo",
        "ut"
      ],
      [
        "ac",
        "tion"
      ],
      [
        "c",
        "ess"
      ],
      [
        "ĠA",
        "l"
      ],
      [
        "Ġresul",
        "ts"
      ],
      [
        "s",
        "p"
      ],
      [
        "m",
        "un"
      ],
      [
        "d",
        "ed"
      ],
      [
        "Ġfor",
        "m"
      ],
      [
        "Ġmeas",
        "ure"
      ],
      [
        "e",
        "ver"
      ],
      [
        "Ġnum",
        "ber"
      ],
      [
        "ain",
        "s"
      ],
      [
        "in",
        "d"
      ],
      [
        "ĠÂ",
        "µ"
      ],
      [
        "Ġ",
        "âĢ"
      ],
      [
        "Ġb",
        "i"
      ],
      [
        "Ġ",
        "9"
      ],
      [
        "arg",
        "et"
      ],
      [
        "ud",
        "y"
      ],
      [
        "Ġm",
        "M"
      ],
      [
        "ĠÎ",
        "¼"
      ],
      [
        "Ġfol",
        "low"
      ],
      [
        "1",
        "1"
      ],
      [
        "Ġon",
        "ly"
      ],
      [
        "re",
        "l"
      ],
      [
        "ĠR",
        "NA"
      ],
      [
        "iz",
        "e"
      ],
      [
        "Ġh",
        "r"
      ],
      [
        "Ġobser",
        "ved"
      ],
      [
        "Ġsign",
        "al"
      ],
      [
        "b",
        "od"
      ],
      [
        "Ġ",
        "up"
      ],
      [
        "g",
        "r"
      ],
      [
        "Ġt",
        "re"
      ],
      [
        "Ġst",
        "udy"
      ],
      [
        "il",
        "ar"
      ],
      [
        "Ġlevel",
        "s"
      ],
      [
        "v",
        "es"
      ],
      [
        "ĠD",
        "NA"
      ],
      [
        "r",
        "im"
      ],
      [
        "Ġid",
        "entif"
      ],
      [
        "de",
        "pendent"
      ],
      [
        "ĠÂ",
        "±"
      ],
      [
        "Ġf",
        "r"
      ],
      [
        "Ġ",
        "i"
      ],
      [
        "Ġs",
        "tim"
      ],
      [
        "is",
        "m"
      ],
      [
        "Ġperform",
        "ed"
      ],
      [
        "ment",
        "s"
      ],
      [
        "Ġm",
        "em"
      ],
      [
        "ce",
        "pt"
      ],
      [
        "ing",
        "le"
      ],
      [
        "e",
        "x"
      ],
      [
        "Ġthe",
        "n"
      ],
      [
        "f",
        "ore"
      ],
      [
        "Ġh",
        "as"
      ],
      [
        "Ġde",
        "f"
      ],
      [
        "Ġpre",
        "vious"
      ],
      [
        "p",
        "ar"
      ],
      [
        "Ġt",
        "est"
      ],
      [
        "in",
        "es"
      ],
      [
        "ĠS",
        "c"
      ],
      [
        "ys",
        "tem"
      ],
      [
        "on",
        "se"
      ],
      [
        "Ġl",
        "ow"
      ],
      [
        "Ġth",
        "ree"
      ],
      [
        "vel",
        "op"
      ],
      [
        "Ġinc",
        "lu"
      ],
      [
        "o",
        "b"
      ],
      [
        "Ġbe",
        "en"
      ],
      [
        "Ġs",
        "yn"
      ],
      [
        "Ġtrans",
        "cri"
      ],
      [
        "hib",
        "it"
      ],
      [
        "p",
        "or"
      ],
      [
        "Ġin",
        "s"
      ],
      [
        "Ġa",
        "g"
      ],
      [
        "Ġ201",
        "8"
      ],
      [
        "5",
        "0"
      ],
      [
        "Ġthe",
        "re"
      ],
      [
        "Ġm",
        "ay"
      ],
      [
        "at",
        "ic"
      ],
      [
        "v",
        "al"
      ],
      [
        "1",
        "2"
      ],
      [
        "Â",
        "°"
      ],
      [
        "Ġexperim",
        "ents"
      ],
      [
        "Ġc",
        "ur"
      ],
      [
        "Ġf",
        "ir"
      ],
      [
        "ol",
        "d"
      ],
      [
        "Ġwhe",
        "re"
      ],
      [
        "a",
        "x"
      ],
      [
        "he",
        "m"
      ],
      [
        "ous",
        "e"
      ],
      [
        "p",
        "tion"
      ],
      [
        "t",
        "in"
      ],
      [
        "ow",
        "ever"
      ],
      [
        "di",
        "vid"
      ],
      [
        "Ġco",
        "uld"
      ],
      [
        "i",
        "red"
      ],
      [
        "Ġ201",
        "7"
      ],
      [
        "R",
        "I"
      ],
      [
        "Ġstr",
        "uc"
      ],
      [
        "Ġt",
        "arget"
      ],
      [
        "Ġp",
        "resent"
      ],
      [
        "i",
        "ent"
      ],
      [
        "ĠâĪ",
        "Ĵ"
      ],
      [
        "re",
        "g"
      ],
      [
        "on",
        "al"
      ],
      [
        "ur",
        "ther"
      ],
      [
        "ro",
        "ugh"
      ],
      [
        "h",
        "a"
      ],
      [
        "ol",
        "ution"
      ],
      [
        "l",
        "ic"
      ],
      [
        "Ġdes",
        "cri"
      ],
      [
        "Ġwith",
        "in"
      ],
      [
        "Ġaut",
        "h"
      ],
      [
        "C",
        "C"
      ],
      [
        "Ġwhe",
        "n"
      ],
      [
        "as",
        "es"
      ],
      [
        "g",
        "es"
      ],
      [
        "Ġn",
        "on"
      ],
      [
        "duc",
        "tion"
      ],
      [
        "Ġs",
        "ingle"
      ],
      [
        "Ġf",
        "ound"
      ],
      [
        "ĠâĢ",
        "ĺ"
      ],
      [
        "Ġ",
        "J"
      ],
      [
        "Ġgro",
        "up"
      ],
      [
        "Ġm",
        "on"
      ],
      [
        "r",
        "ic"
      ],
      [
        "Ġsam",
        "e"
      ],
      [
        "Ġcon",
        "f"
      ],
      [
        "ar",
        "s"
      ],
      [
        "Ġs",
        "ur"
      ],
      [
        "Ġresp",
        "onse"
      ],
      [
        "ab",
        "ility"
      ],
      [
        "Ġen",
        "d"
      ],
      [
        "Ġw",
        "ould"
      ],
      [
        "Ġm",
        "ul"
      ],
      [
        "Ġmeth",
        "od"
      ],
      [
        "n",
        "e"
      ],
      [
        "Ġ201",
        "6"
      ],
      [
        "Ġpat",
        "h"
      ],
      [
        "Ġit",
        "s"
      ],
      [
        "l",
        "es"
      ],
      [
        "Ġauth",
        "ors"
      ],
      [
        "ac",
        "ter"
      ],
      [
        "Ġc",
        "al"
      ],
      [
        "il",
        "d"
      ],
      [
        "Ġde",
        "velop"
      ],
      [
        "Ġo",
        "b"
      ],
      [
        "Ġprotein",
        "s"
      ],
      [
        "ens",
        "ity"
      ],
      [
        "pl",
        "es"
      ],
      [
        "Ġn",
        "ucle"
      ],
      [
        "A",
        "P"
      ],
      [
        "Ġcomp",
        "ar"
      ],
      [
        "S",
        "C"
      ],
      [
        "Ġd",
        "om"
      ],
      [
        "Ġeff",
        "ect"
      ],
      [
        "Ġin",
        "divid"
      ],
      [
        "lu",
        "ores"
      ],
      [
        "Ġb",
        "r"
      ],
      [
        "b",
        "ed"
      ],
      [
        "Ġex",
        "am"
      ],
      [
        "Ġs",
        "ec"
      ],
      [
        "Ġ",
        "Z"
      ],
      [
        "ib",
        "le"
      ],
      [
        "Ġgro",
        "w"
      ],
      [
        "Ġ201",
        "5"
      ],
      [
        "i",
        "tive"
      ],
      [
        "Ġme",
        "an"
      ],
      [
        "Ġsim",
        "ilar"
      ],
      [
        "Ġspec",
        "ific"
      ],
      [
        "Ġad",
        "dition"
      ],
      [
        "Ġdet",
        "erm"
      ],
      [
        "Ġac",
        "ross"
      ],
      [
        "Ġb",
        "inding"
      ],
      [
        "u",
        "di"
      ],
      [
        "um",
        "an"
      ],
      [
        "Ġass",
        "oci"
      ],
      [
        "ap",
        "h"
      ],
      [
        "Ġpar",
        "tic"
      ],
      [
        "ec",
        "han"
      ],
      [
        "Ġcomp",
        "ared"
      ],
      [
        "Ġapp",
        "ro"
      ],
      [
        "c",
        "c"
      ],
      [
        "it",
        "es"
      ],
      [
        "Ġp",
        "red"
      ],
      [
        "tiv",
        "ely"
      ],
      [
        "Ġexperim",
        "ent"
      ],
      [
        "Ġw",
        "ell"
      ],
      [
        "Ġk",
        "n"
      ],
      [
        "y",
        "c"
      ],
      [
        "Ġs",
        "ystem"
      ],
      [
        "Ġp",
        "ol"
      ],
      [
        "Ġth",
        "rough"
      ],
      [
        "Ġp",
        "op"
      ],
      [
        "b",
        "ran"
      ],
      [
        "Ġp",
        "oin"
      ],
      [
        "Ġ",
        "ran"
      ],
      [
        "tr",
        "uc"
      ],
      [
        "1",
        "4"
      ],
      [
        "Ġg",
        "l"
      ],
      [
        "o",
        "od"
      ],
      [
        "Ġm",
        "echan"
      ],
      [
        "am",
        "et"
      ],
      [
        "ĠC",
        "D"
      ],
      [
        "Ġpro",
        "cess"
      ],
      [
        "Ġs",
        "et"
      ],
      [
        "Ġ201",
        "9"
      ],
      [
        "w",
        "ard"
      ],
      [
        "as",
        "m"
      ],
      [
        "Ġthe",
        "y"
      ],
      [
        "olog",
        "ical"
      ],
      [
        "rec",
        "t"
      ],
      [
        "Ġmul",
        "ti"
      ],
      [
        "f",
        "er"
      ],
      [
        "Ġf",
        "act"
      ],
      [
        "ver",
        "s"
      ],
      [
        "el",
        "s"
      ],
      [
        "Ġ",
        "es"
      ],
      [
        "Ġcal",
        "c"
      ],
      [
        "ĠW",
        "T"
      ],
      [
        "Ġpro",
        "vid"
      ],
      [
        "0",
        "5"
      ],
      [
        "Ġ",
        "âĢĵ"
      ],
      [
        "os",
        "ph"
      ],
      [
        "ress",
        "ion"
      ],
      [
        "Ġsu",
        "ch"
      ],
      [
        "Ġt",
        "ri"
      ],
      [
        "f",
        "ic"
      ],
      [
        "cent",
        "r"
      ],
      [
        "orm",
        "al"
      ],
      [
        "Ġ19",
        "9"
      ],
      [
        "Ġp",
        "rim"
      ],
      [
        "d",
        "er"
      ],
      [
        "is",
        "e"
      ],
      [
        "Ġcomp",
        "lex"
      ],
      [
        "ren",
        "t"
      ],
      [
        "1",
        "6"
      ],
      [
        "yp",
        "es"
      ],
      [
        "enti",
        "al"
      ],
      [
        "Ġ201",
        "4"
      ],
      [
        "Ġst",
        "udi"
      ],
      [
        "bod",
        "y"
      ],
      [
        "Ġan",
        "im"
      ],
      [
        "Ġ",
        "Q"
      ],
      [
        "1",
        "3"
      ],
      [
        "t",
        "ro"
      ],
      [
        "w",
        "ay"
      ],
      [
        "C",
        "T"
      ],
      [
        "Ġf",
        "e"
      ],
      [
        "G",
        "FP"
      ],
      [
        "Ġrep",
        "or"
      ],
      [
        "Ġstruc",
        "ture"
      ],
      [
        "Ġqu",
        "anti"
      ],
      [
        "ĠA",
        "s"
      ],
      [
        "Ġf",
        "l"
      ],
      [
        "Ġfir",
        "st"
      ],
      [
        "ti",
        "l"
      ],
      [
        "E",
        "M"
      ],
      [
        "us",
        "ter"
      ],
      [
        "a",
        "v"
      ],
      [
        "ĠC",
        "h"
      ],
      [
        "Ġcon",
        "centr"
      ],
      [
        "ĠH",
        "owever"
      ],
      [
        "us",
        "t"
      ],
      [
        "Ġt",
        "em"
      ],
      [
        "ĠS",
        "t"
      ],
      [
        "Ġv",
        "is"
      ],
      [
        "Ġg",
        "r"
      ],
      [
        "form",
        "ation"
      ],
      [
        "Ġse",
        "lec"
      ],
      [
        "Ġm",
        "edi"
      ],
      [
        "Ġs",
        "o"
      ],
      [
        "ik",
        "e"
      ],
      [
        "Ġh",
        "yp"
      ],
      [
        "Ġp",
        "ot"
      ],
      [
        "ha",
        "vi"
      ],
      [
        "at",
        "ory"
      ],
      [
        "if",
        "ied"
      ],
      [
        "Ġre",
        "qu"
      ],
      [
        "Ġe",
        "mb"
      ],
      [
        "Ġl",
        "ab"
      ],
      [
        "Ġpred",
        "ic"
      ],
      [
        "re",
        "en"
      ],
      [
        "Ġc",
        "ar"
      ],
      [
        "Ġ",
        "Y"
      ],
      [
        "it",
        "s"
      ],
      [
        "if",
        "e"
      ],
      [
        "1",
        "5"
      ],
      [
        "Ġ",
        "j"
      ],
      [
        "t",
        "o"
      ],
      [
        "Ġc",
        "ent"
      ],
      [
        "Ġdis",
        "trib"
      ],
      [
        "ul",
        "l"
      ],
      [
        "b",
        "in"
      ],
      [
        "ĠThe",
        "se"
      ],
      [
        "an",
        "g"
      ],
      [
        "in",
        "k"
      ],
      [
        "Ġchan",
        "ges"
      ],
      [
        "Ġp",
        "res"
      ],
      [
        "res",
        "p"
      ],
      [
        "qu",
        "ence"
      ],
      [
        "is",
        "h"
      ],
      [
        "tr",
        "ac"
      ],
      [
        "c",
        "ence"
      ],
      [
        "7",
        "5"
      ],
      [
        "Ġp",
        "a"
      ],
      [
        "ad",
        "s"
      ],
      [
        "Ġâ",
        "ģ"
      ],
      [
        "Ġdescri",
        "bed"
      ],
      [
        "Ġsugg",
        "est"
      ],
      [
        "Ġmic",
        "ro"
      ],
      [
        "Ġim",
        "mun"
      ],
      [
        "en",
        "g"
      ],
      [
        "Ġpro",
        "m"
      ],
      [
        "er",
        "g"
      ],
      [
        "Ġd",
        "r"
      ],
      [
        "Ġmem",
        "bran"
      ],
      [
        "ro",
        "und"
      ],
      [
        "Ġs",
        "ens"
      ],
      [
        "ĠI",
        "m"
      ],
      [
        "or",
        "ding"
      ],
      [
        "1",
        "8"
      ],
      [
        "b",
        "r"
      ],
      [
        "ul",
        "ations"
      ],
      [
        "M",
        "P"
      ],
      [
        "Ġse",
        "quenc"
      ],
      [
        "us",
        "ion"
      ],
      [
        "so",
        "ur"
      ],
      [
        "Ġresp",
        "ec"
      ],
      [
        "Ġcor",
        "rel"
      ],
      [
        "u",
        "ff"
      ],
      [
        "Ġr",
        "ate"
      ],
      [
        "Ġbe",
        "havi"
      ],
      [
        "o",
        "ugh"
      ],
      [
        "sour",
        "ce"
      ],
      [
        "ro",
        "w"
      ],
      [
        "t",
        "ype"
      ],
      [
        "Ġh",
        "uman"
      ],
      [
        "Ġdis",
        "c"
      ],
      [
        "p",
        "os"
      ],
      [
        "Ġ201",
        "3"
      ],
      [
        "Ġstudi",
        "es"
      ],
      [
        "n",
        "ing"
      ],
      [
        "oc",
        "h"
      ],
      [
        "Ġeff",
        "ects"
      ],
      [
        "5",
        "4"
      ],
      [
        "A",
        "R"
      ],
      [
        "it",
        "her"
      ],
      [
        "Ġo",
        "p"
      ],
      [
        "Ġpro",
        "b"
      ],
      [
        "Î",
        "±"
      ],
      [
        "ot",
        "s"
      ],
      [
        "Ġa",
        "ff"
      ],
      [
        "Ġsam",
        "ples"
      ],
      [
        "Ġval",
        "ues"
      ],
      [
        "Ġm",
        "ark"
      ],
      [
        "Ġemb",
        "ry"
      ],
      [
        "Ġexp",
        "l"
      ],
      [
        "o",
        "un"
      ],
      [
        "u",
        "pp"
      ],
      [
        "op",
        "h"
      ],
      [
        "en",
        "e"
      ],
      [
        "Ġa",
        "ver"
      ],
      [
        "Ġm",
        "ost"
      ],
      [
        "Ġmut",
        "ant"
      ],
      [
        "y",
        "z"
      ],
      [
        "Ġ",
        "["
      ],
      [
        "Ã",
        "Ĺ"
      ],
      [
        "Ġimp",
        "ort"
      ],
      [
        "Ġre",
        "m"
      ],
      [
        "p",
        "ut"
      ],
      [
        "at",
        "is"
      ],
      [
        "o",
        "id"
      ],
      [
        "ul",
        "t"
      ],
      [
        "Ġresp",
        "ons"
      ],
      [
        "Ġincre",
        "ased"
      ],
      [
        "Ġw",
        "ild"
      ],
      [
        "i",
        "um"
      ],
      [
        "Ġ",
        "z"
      ],
      [
        "Ġâģ",
        "¢"
      ],
      [
        "t",
        "ained"
      ],
      [
        "Ġre",
        "plic"
      ],
      [
        "Ġsu",
        "bs"
      ],
      [
        "Ġcl",
        "uster"
      ],
      [
        "Ġm",
        "ouse"
      ],
      [
        "o",
        "k"
      ],
      [
        "Ġwh",
        "ile"
      ],
      [
        "o",
        "le"
      ],
      [
        "sp",
        "ec"
      ],
      [
        "Ġ1",
        "00"
      ],
      [
        "olog",
        "y"
      ],
      [
        "Ġwhe",
        "ther"
      ],
      [
        "Ġindic",
        "ated"
      ],
      [
        "Ġf",
        "luores"
      ],
      [
        "Ġs",
        "m"
      ],
      [
        "Ġm",
        "ain"
      ],
      [
        "te",
        "x"
      ],
      [
        "I",
        "P"
      ],
      [
        "Ġdifferen",
        "ti"
      ],
      [
        "Ġn",
        "ormal"
      ],
      [
        "Ġ20",
        "20"
      ],
      [
        "om",
        "es"
      ],
      [
        "2",
        "5"
      ],
      [
        "Ġf",
        "urther"
      ],
      [
        "am",
        "m"
      ],
      [
        "2",
        "1"
      ],
      [
        "Ġactiv",
        "ation"
      ],
      [
        "T",
        "P"
      ],
      [
        "Ġpos",
        "s"
      ],
      [
        "c",
        "t"
      ],
      [
        "Ġl",
        "o"
      ],
      [
        "Ġin",
        "hibit"
      ],
      [
        "Ġmechan",
        "ism"
      ],
      [
        "Ġpat",
        "tern"
      ],
      [
        "o",
        "v"
      ],
      [
        "di",
        "tions"
      ],
      [
        "Ġs",
        "ome"
      ],
      [
        "Ġc",
        "le"
      ],
      [
        "Ġp",
        "hen"
      ],
      [
        "Ġa",
        "x"
      ],
      [
        "Ġ",
        "X"
      ],
      [
        "Ġv",
        "er"
      ],
      [
        "Ġtre",
        "at"
      ],
      [
        "Ġs",
        "ize"
      ],
      [
        "ap",
        "s"
      ],
      [
        "T",
        "G"
      ],
      [
        "Ġde",
        "m"
      ],
      [
        "Ġp",
        "an"
      ],
      [
        "Ġin",
        "j"
      ],
      [
        "Ġ3",
        "0"
      ],
      [
        "Ġ",
        "if"
      ],
      [
        "Ġcon",
        "ditions"
      ],
      [
        "ag",
        "ent"
      ],
      [
        "Ġf",
        "re"
      ],
      [
        "Ġreg",
        "ion"
      ],
      [
        "Ġl",
        "ar"
      ],
      [
        "Ġreg",
        "ions"
      ],
      [
        "Ġh",
        "ig"
      ],
      [
        "c",
        "er"
      ],
      [
        "in",
        "s"
      ],
      [
        "Ġo",
        "cc"
      ],
      [
        "am",
        "ic"
      ],
      [
        "aus",
        "e"
      ],
      [
        "Ġprevious",
        "ly"
      ],
      [
        "Ġexpress",
        "ed"
      ],
      [
        "Ġto",
        "tal"
      ],
      [
        "Ġ5",
        "0"
      ],
      [
        "ic",
        "e"
      ],
      [
        "ar",
        "ly"
      ],
      [
        "Ġdevelop",
        "ment"
      ],
      [
        "ist",
        "ent"
      ],
      [
        "lu",
        "e"
      ],
      [
        "i",
        "el"
      ],
      [
        "Ġph",
        "osph"
      ],
      [
        "ac",
        "tions"
      ],
      [
        "t",
        "en"
      ],
      [
        "Ġh",
        "ow"
      ],
      [
        "Ġidentif",
        "ied"
      ],
      [
        "A",
        "S"
      ],
      [
        "Ġstim",
        "ul"
      ],
      [
        "Ġreg",
        "ul"
      ],
      [
        "es",
        "ted"
      ],
      [
        "Ġpos",
        "t"
      ],
      [
        "o",
        "ver"
      ],
      [
        "Ġindivid",
        "ual"
      ],
      [
        "Ġa",
        "bs"
      ],
      [
        "i",
        "e"
      ],
      [
        "Ġst",
        "ate"
      ],
      [
        "e",
        "y"
      ],
      [
        "or",
        "d"
      ],
      [
        "Ġe",
        "ither"
      ],
      [
        "Ġl",
        "ines"
      ],
      [
        "a",
        "j"
      ],
      [
        "ec",
        "h"
      ],
      [
        "ĠC",
        "ell"
      ],
      [
        "Ġre",
        "cept"
      ],
      [
        "Ġmembran",
        "e"
      ],
      [
        "B",
        "S"
      ],
      [
        "Ġb",
        "ased"
      ],
      [
        "ic",
        "k"
      ],
      [
        "Ġch",
        "rom"
      ],
      [
        "f",
        "ace"
      ],
      [
        "Ġprom",
        "ot"
      ],
      [
        "1",
        "9"
      ],
      [
        "Ġsh",
        "ould"
      ],
      [
        "Ġbr",
        "ain"
      ],
      [
        "os",
        "s"
      ],
      [
        "Ġc",
        "yt"
      ],
      [
        "Ġd",
        "yn"
      ],
      [
        "Ġdec",
        "re"
      ],
      [
        "m",
        "edi"
      ],
      [
        "ĠAn",
        "ti"
      ],
      [
        "Ġcon",
        "tr"
      ],
      [
        "Ġrespec",
        "tively"
      ],
      [
        "Ġ201",
        "2"
      ],
      [
        "Ġcor",
        "resp"
      ],
      [
        "4",
        "0"
      ],
      [
        "Ġfollow",
        "ing"
      ],
      [
        "Ġim",
        "ag"
      ],
      [
        "Ġes",
        "tim"
      ],
      [
        "Ġgrow",
        "th"
      ],
      [
        "Ġex",
        "t"
      ],
      [
        "Ġ",
        "x"
      ],
      [
        "Ġsignal",
        "ing"
      ],
      [
        "Ġsignificant",
        "ly"
      ],
      [
        "Ġin",
        "v"
      ],
      [
        "on",
        "t"
      ],
      [
        "Ġro",
        "le"
      ],
      [
        "ul",
        "ture"
      ],
      [
        "Ġsm",
        "all"
      ],
      [
        "Ġanal",
        "yz"
      ],
      [
        "Ġim",
        "ages"
      ],
      [
        "Ġtranscri",
        "ption"
      ],
      [
        "Ġpar",
        "amet"
      ],
      [
        "Ġf",
        "il"
      ],
      [
        "Ġe",
        "p"
      ],
      [
        "Ġmulti",
        "ple"
      ],
      [
        "Ġm",
        "it"
      ],
      [
        "ut",
        "e"
      ],
      [
        "Ġvis",
        "ual"
      ],
      [
        "eng",
        "th"
      ],
      [
        "i",
        "qu"
      ],
      [
        "i",
        "or"
      ],
      [
        "Ġw",
        "ork"
      ],
      [
        "m",
        "e"
      ],
      [
        "ĠR",
        "e"
      ],
      [
        "s",
        "c"
      ],
      [
        "ĠE",
        "x"
      ],
      [
        "Ġincre",
        "ase"
      ],
      [
        "Ġshow",
        "ed"
      ],
      [
        "as",
        "k"
      ],
      [
        "Ġmethod",
        "s"
      ],
      [
        "Ġs",
        "ites"
      ],
      [
        "ad",
        "e"
      ],
      [
        "ep",
        "ti"
      ],
      [
        "Ġmo",
        "lec"
      ],
      [
        "C",
        "l"
      ],
      [
        "Ġf",
        "it"
      ],
      [
        "Ġin",
        "dependent"
      ],
      [
        "Ġ1",
        "2"
      ],
      [
        "3",
        "0"
      ],
      [
        "Ġanim",
        "als"
      ],
      [
        "Ġassoci",
        "ated"
      ],
      [
        "a",
        "pp"
      ],
      [
        "Ġt",
        "iss"
      ],
      [
        "ut",
        "ed"
      ],
      [
        "l",
        "ation"
      ],
      [
        "Ġd",
        "id"
      ],
      [
        "Ġt",
        "ype"
      ],
      [
        "Ġac",
        "id"
      ],
      [
        "Ġm",
        "at"
      ],
      [
        "Ġass",
        "ay"
      ],
      [
        "Ġinc",
        "ub"
      ],
      [
        "Ġb",
        "ack"
      ],
      [
        "at",
        "h"
      ],
      [
        "Ġstr",
        "ong"
      ],
      [
        "Ġre",
        "ve"
      ],
      [
        "Ġs",
        "er"
      ],
      [
        "Ġmut",
        "ants"
      ],
      [
        "i",
        "o"
      ],
      [
        "ap",
        "er"
      ],
      [
        "Ġmeasure",
        "d"
      ],
      [
        "2",
        "2"
      ],
      [
        "Ġv",
        "ir"
      ],
      [
        "Ġv",
        "ol"
      ],
      [
        "1",
        "7"
      ],
      [
        "ons",
        "tr"
      ],
      [
        "Ġh",
        "ad"
      ],
      [
        "Ġl",
        "ik"
      ],
      [
        "Ġtreat",
        "ment"
      ],
      [
        "ĠC",
        "at"
      ],
      [
        "he",
        "l"
      ],
      [
        "Ġpres",
        "ence"
      ],
      [
        "Ġ201",
        "1"
      ],
      [
        "Ġin",
        "iti"
      ],
      [
        "Ġcl",
        "ass"
      ],
      [
        "a",
        "w"
      ],
      [
        "iv",
        "en"
      ],
      [
        "g",
        "an"
      ],
      [
        "ĠW",
        "h"
      ],
      [
        "uff",
        "er"
      ],
      [
        "ter",
        "m"
      ],
      [
        "Ġb",
        "ec"
      ],
      [
        "Ġex",
        "c"
      ],
      [
        "w",
        "are"
      ],
      [
        "r",
        "ich"
      ],
      [
        "M",
        "S"
      ],
      [
        "it",
        "ro"
      ],
      [
        "C",
        "s"
      ],
      [
        "ĠP",
        "ro"
      ],
      [
        "Ġloc",
        "al"
      ],
      [
        "iti",
        "es"
      ],
      [
        "Ġre",
        "d"
      ],
      [
        "iel",
        "d"
      ],
      [
        "om",
        "ic"
      ],
      [
        "Ġchan",
        "n"
      ],
      [
        "Ġbe",
        "fore"
      ],
      [
        "Ġphen",
        "ot"
      ],
      [
        "n",
        "ess"
      ],
      [
        "Ġimport",
        "ant"
      ],
      [
        "Ġhig",
        "her"
      ],
      [
        "ĠI",
        "t"
      ],
      [
        "ic",
        "ient"
      ],
      [
        "Ġl",
        "ong"
      ],
      [
        "Ġdi",
        "rect"
      ],
      [
        "Ġres",
        "id"
      ],
      [
        "Ġdem",
        "onstr"
      ],
      [
        "o",
        "f"
      ],
      [
        "Ġe",
        "lec"
      ],
      [
        "an",
        "e"
      ],
      [
        "Ġindic",
        "ate"
      ],
      [
        "Ġb",
        "as"
      ],
      [
        "tiv",
        "ity"
      ],
      [
        "lement",
        "ary"
      ],
      [
        "i",
        "an"
      ],
      [
        "o",
        "ve"
      ],
      [
        "n",
        "er"
      ],
      [
        "Ġf",
        "ile"
      ],
      [
        "ere",
        "st"
      ],
      [
        "Ġrel",
        "ative"
      ],
      [
        "Ġdifferen",
        "ces"
      ],
      [
        "Ġchan",
        "ge"
      ],
      [
        "y",
        "cl"
      ],
      [
        "spec",
        "ific"
      ],
      [
        "Ġrespons",
        "es"
      ],
      [
        "ft",
        "ware"
      ],
      [
        "Ġp",
        "e"
      ],
      [
        "at",
        "ely"
      ],
      [
        "c",
        "ed"
      ],
      [
        "Ġd",
        "own"
      ],
      [
        "RI",
        "D"
      ],
      [
        "Ġ1",
        "5"
      ],
      [
        "v",
        "en"
      ],
      [
        "Ġcont",
        "aining"
      ],
      [
        "Ġmodel",
        "s"
      ],
      [
        "ro",
        "ph"
      ],
      [
        "Ġ",
        "**"
      ],
      [
        "r",
        "al"
      ],
      [
        "Ġpop",
        "ulation"
      ],
      [
        "L",
        "ife"
      ],
      [
        "8",
        "0"
      ],
      [
        "ĠAl",
        "l"
      ],
      [
        "Ġcompar",
        "is"
      ],
      [
        "e",
        "k"
      ],
      [
        "Ġc",
        "ulture"
      ],
      [
        "ific",
        "ation"
      ],
      [
        "Ġre",
        "f"
      ],
      [
        "c",
        "op"
      ],
      [
        "i",
        "ved"
      ],
      [
        "Ġal",
        "low"
      ],
      [
        "Ġfre",
        "quenc"
      ],
      [
        "Ġ",
        "#"
      ],
      [
        "Ġe",
        "m"
      ],
      [
        "ĠS",
        "upp"
      ],
      [
        "Ġse",
        "quence"
      ],
      [
        "Ġdyn",
        "amic"
      ],
      [
        "a",
        "f"
      ],
      [
        ":",
        ":"
      ],
      [
        "ĠT",
        "r"
      ],
      [
        "Ġdistrib",
        "ution"
      ],
      [
        "Ġinclu",
        "ding"
      ],
      [
        "Ġshow",
        "ing"
      ],
      [
        "etw",
        "ork"
      ],
      [
        "S",
        "P"
      ],
      [
        "Ġbehavi",
        "or"
      ],
      [
        "Ġ",
        "Ï"
      ],
      [
        "Ġe",
        "qu"
      ],
      [
        "r",
        "am"
      ],
      [
        "Ġsec",
        "ond"
      ],
      [
        "T",
        "C"
      ],
      [
        "ĠS",
        "e"
      ],
      [
        "Ġch",
        "ar"
      ],
      [
        "Ġaver",
        "age"
      ],
      [
        "Ġdom",
        "ain"
      ],
      [
        "Ġ201",
        "0"
      ],
      [
        "O",
        "V"
      ],
      [
        "our",
        "ce"
      ],
      [
        "p",
        "s"
      ],
      [
        "g",
        "or"
      ],
      [
        "Ġus",
        "e"
      ],
      [
        "it",
        "u"
      ],
      [
        "ĠC",
        "om"
      ],
      [
        "ĠÎ",
        "±"
      ],
      [
        "er",
        "r"
      ],
      [
        "Ġre",
        "le"
      ],
      [
        "m",
        "a"
      ],
      [
        "Ġf",
        "inding"
      ],
      [
        "c",
        "ell"
      ],
      [
        "2",
        "7"
      ],
      [
        "Ġp",
        "ur"
      ],
      [
        "Ġre",
        "duced"
      ],
      [
        "u",
        "ro"
      ],
      [
        "Ġs",
        "ite"
      ],
      [
        "Ġc",
        "ir"
      ],
      [
        "es",
        "ts"
      ],
      [
        "Ġ",
        "<"
      ],
      [
        "Ġt",
        "erm"
      ],
      [
        "it",
        "ed"
      ],
      [
        "Ġc",
        "ap"
      ],
      [
        "oc",
        "yt"
      ],
      [
        "Ġd",
        "ue"
      ],
      [
        "Ġv",
        "s"
      ],
      [
        "Ġpro",
        "t"
      ],
      [
        "Ġm",
        "RNA"
      ],
      [
        "v",
        "ing"
      ],
      [
        "er",
        "ation"
      ],
      [
        "ĠÎ",
        "Ķ"
      ],
      [
        "r",
        "on"
      ],
      [
        "Ġl",
        "im"
      ],
      [
        "Ġanalyz",
        "ed"
      ],
      [
        "Ġan",
        "y"
      ],
      [
        "m",
        "an"
      ],
      [
        "Ġsam",
        "ple"
      ],
      [
        "ar",
        "t"
      ],
      [
        "Ġcon",
        "trib"
      ],
      [
        "Ġb",
        "uffer"
      ],
      [
        "R",
        "E"
      ],
      [
        "Ġde",
        "p"
      ],
      [
        "Ġwith",
        "out"
      ],
      [
        "se",
        "mb"
      ],
      [
        "ak",
        "e"
      ],
      [
        "Ġn",
        "etwork"
      ],
      [
        "Ġcons",
        "id"
      ],
      [
        "ol",
        "ved"
      ],
      [
        "ti",
        "t"
      ],
      [
        "2",
        "6"
      ],
      [
        "feren",
        "ce"
      ],
      [
        "ĠSupp",
        "lementary"
      ],
      [
        "u",
        "le"
      ],
      [
        "Ġst",
        "and"
      ],
      [
        "Ġco",
        "un"
      ],
      [
        "Ġin",
        "formation"
      ],
      [
        "or",
        "ph"
      ],
      [
        "ic",
        "ally"
      ],
      [
        "t",
        "ur"
      ],
      [
        "Ġcon",
        "dition"
      ],
      [
        "Ġdo",
        "es"
      ],
      [
        "Ġpoin",
        "t"
      ],
      [
        "at",
        "or"
      ],
      [
        "A",
        "A"
      ],
      [
        "Ġob",
        "tained"
      ],
      [
        "Ġl",
        "oss"
      ],
      [
        "Ġexam",
        "ple"
      ],
      [
        "ix",
        "ed"
      ],
      [
        "oc",
        "al"
      ],
      [
        "Ġth",
        "ose"
      ],
      [
        "vel",
        "y"
      ],
      [
        "Ġse",
        "par"
      ],
      [
        "Ġd",
        "ays"
      ],
      [
        "Ġst",
        "atis"
      ],
      [
        "Ġreve",
        "al"
      ],
      [
        "R",
        "P"
      ],
      [
        "Ġf",
        "our"
      ],
      [
        "A",
        "D"
      ],
      [
        "1",
        "00"
      ],
      [
        "Ġsub",
        "j"
      ],
      [
        "ĠG",
        "FP"
      ],
      [
        "Ġocc",
        "ur"
      ],
      [
        "y",
        "d"
      ],
      [
        "Ġa",
        "v"
      ],
      [
        "b",
        "ased"
      ],
      [
        "2",
        "4"
      ],
      [
        "Ġp",
        "aper"
      ],
      [
        "o",
        "red"
      ],
      [
        "Ġd",
        "at"
      ],
      [
        "G",
        "G"
      ],
      [
        "in",
        "c"
      ],
      [
        "Ġpot",
        "ential"
      ],
      [
        "Ġv",
        "i"
      ],
      [
        "Ġpl",
        "asm"
      ],
      [
        "ĠÎ",
        "²"
      ],
      [
        "ĠR",
        "RID"
      ],
      [
        "Ġcur",
        "rent"
      ],
      [
        "Ġbl",
        "ock"
      ],
      [
        "t",
        "t"
      ],
      [
        "Ġcons",
        "istent"
      ],
      [
        "Ġl",
        "ight"
      ],
      [
        "Ġspec",
        "ies"
      ],
      [
        "Ġmut",
        "ations"
      ],
      [
        "us",
        "s"
      ],
      [
        "tic",
        "s"
      ],
      [
        "Ġcalc",
        "ulated"
      ],
      [
        "Ġ",
        "/"
      ],
      [
        "Ġass",
        "ess"
      ],
      [
        "Ġab",
        "ove"
      ],
      [
        "ros",
        "cop"
      ],
      [
        "Ġcontr",
        "ast"
      ],
      [
        "Ġne",
        "w"
      ],
      [
        "I",
        "I"
      ],
      [
        "Ġfluores",
        "cence"
      ],
      [
        "Ġb",
        "ar"
      ],
      [
        "Ġe",
        "l"
      ],
      [
        "ĠS",
        "p"
      ],
      [
        "Ġdr",
        "ug"
      ],
      [
        "ĠA",
        "d"
      ],
      [
        "i",
        "er"
      ],
      [
        "hem",
        "ical"
      ],
      [
        "Ġinter",
        "action"
      ],
      [
        "Ġanalys",
        "es"
      ],
      [
        "u",
        "ce"
      ],
      [
        "Ġlab",
        "el"
      ],
      [
        "d",
        "es"
      ],
      [
        "Ġconcentr",
        "ation"
      ],
      [
        "qu",
        "ent"
      ],
      [
        "n",
        "ot"
      ],
      [
        "in",
        "ation"
      ],
      [
        "Ġshow",
        "s"
      ],
      [
        "Ġm",
        "us"
      ],
      [
        "hes",
        "is"
      ],
      [
        "ect",
        "or"
      ],
      [
        "00",
        "1"
      ],
      [
        "0",
        "1"
      ],
      [
        "Ġlik",
        "ely"
      ],
      [
        "Î",
        "²"
      ],
      [
        "ar",
        "ch"
      ],
      [
        "2",
        "9"
      ],
      [
        "Ġre",
        "agent"
      ],
      [
        "Ġen",
        "c"
      ],
      [
        "2",
        "3"
      ],
      [
        "Ġval",
        "ue"
      ],
      [
        "am",
        "p"
      ],
      [
        "uc",
        "h"
      ],
      [
        "Ġw",
        "ill"
      ],
      [
        "on",
        "ding"
      ],
      [
        "res",
        "h"
      ],
      [
        "m",
        "on"
      ],
      [
        "T",
        "T"
      ],
      [
        "et",
        "her"
      ],
      [
        "se",
        "q"
      ],
      [
        "ĠC",
        "a"
      ],
      [
        "Ġe",
        "vid"
      ],
      [
        "Ġ",
        "ÃĹ"
      ],
      [
        "Ġag",
        "ain"
      ],
      [
        "ti",
        "g"
      ],
      [
        "ter",
        "ior"
      ],
      [
        "r",
        "aph"
      ],
      [
        "om",
        "et"
      ],
      [
        "Ġneur",
        "al"
      ],
      [
        "x",
        "im"
      ],
      [
        "Ġtim",
        "es"
      ],
      [
        "is",
        "ion"
      ],
      [
        "Ġrepor",
        "ted"
      ],
      [
        "l",
        "ine"
      ],
      [
        "Ġpos",
        "ition"
      ],
      [
        "ib",
        "r"
      ],
      [
        "Ġchar",
        "acter"
      ],
      [
        "Ġd",
        "ensity"
      ],
      [
        "os",
        "is"
      ],
      [
        "om",
        "bin"
      ],
      [
        "Ġph",
        "ase"
      ],
      [
        "ech",
        "n"
      ],
      [
        "Ġis",
        "ol"
      ],
      [
        "Ġam",
        "pl"
      ],
      [
        "ot",
        "or"
      ],
      [
        "ap",
        "tic"
      ],
      [
        "ec",
        "tions"
      ],
      [
        "ab",
        "ol"
      ],
      [
        "Ġpa",
        "ir"
      ],
      [
        "t",
        "y"
      ],
      [
        "l",
        "ed"
      ],
      [
        "Ġ200",
        "9"
      ],
      [
        "ti",
        "f"
      ],
      [
        "Ġc",
        "ross"
      ],
      [
        "Ġembry",
        "os"
      ],
      [
        "ul",
        "es"
      ],
      [
        "K",
        "O"
      ],
      [
        "75",
        "54"
      ],
      [
        "e",
        "Life"
      ],
      [
        "Ġl",
        "ength"
      ],
      [
        "t",
        "ain"
      ],
      [
        "Ġb",
        "ars"
      ],
      [
        "fic",
        "ation"
      ],
      [
        "Ġgener",
        "ated"
      ],
      [
        "d",
        "om"
      ],
      [
        "Ġl",
        "ip"
      ],
      [
        "Ġd",
        "ri"
      ],
      [
        "Ġint",
        "ensity"
      ],
      [
        "Ġcol",
        "lec"
      ],
      [
        "Ġdeterm",
        "ined"
      ],
      [
        "cri",
        "pt"
      ],
      [
        "Ġle",
        "ft"
      ],
      [
        "Ġcons",
        "truc"
      ],
      [
        "Ġdis",
        "pl"
      ],
      [
        "l",
        "d"
      ],
      [
        "th",
        "ough"
      ],
      [
        "Ġcon",
        "n"
      ],
      [
        "Ġpe",
        "ak"
      ],
      [
        "ad",
        "ing"
      ],
      [
        "Ġlar",
        "ge"
      ],
      [
        "/",
        "-"
      ],
      [
        "g",
        "round"
      ],
      [
        "ĠD",
        "ata"
      ],
      [
        "5",
        "3"
      ],
      [
        "Ġstand",
        "ard"
      ],
      [
        "o",
        "u"
      ],
      [
        "p",
        "ro"
      ],
      [
        "Ġr",
        "ight"
      ],
      [
        "Ġp",
        "H"
      ],
      [
        "Ġb",
        "el"
      ],
      [
        "f",
        "ul"
      ],
      [
        "is",
        "hed"
      ],
      [
        "ĠÂµ",
        "m"
      ],
      [
        "Ġor",
        "gan"
      ],
      [
        "Ġre",
        "mo"
      ],
      [
        "al",
        "es"
      ],
      [
        "r",
        "u"
      ],
      [
        "Ġcomp",
        "on"
      ],
      [
        "Ġh",
        "om"
      ],
      [
        "Ġdis",
        "t"
      ],
      [
        "Ġpl",
        "ot"
      ],
      [
        "ab",
        "ly"
      ],
      [
        "ĠA",
        "r"
      ],
      [
        "os",
        "ome"
      ],
      [
        "Ġrequ",
        "ired"
      ],
      [
        "i",
        "enc"
      ],
      [
        "Ġsur",
        "face"
      ],
      [
        "Ġt",
        "ask"
      ],
      [
        "ir",
        "m"
      ],
      [
        "Ġp",
        "ati"
      ],
      [
        "od",
        "ing"
      ],
      [
        "a",
        "e"
      ],
      [
        "Ġfunction",
        "al"
      ],
      [
        "p",
        "r"
      ],
      [
        "Ġ",
        "~"
      ],
      [
        "Ġv",
        "ers"
      ],
      [
        "ĠThe",
        "re"
      ],
      [
        "4",
        "5"
      ],
      [
        "2",
        "8"
      ],
      [
        "Ġle",
        "ast"
      ],
      [
        "ĠU",
        "n"
      ],
      [
        "Ġv",
        "ia"
      ],
      [
        "Ġapp",
        "e"
      ],
      [
        "ĠL",
        "e"
      ],
      [
        "se",
        "e"
      ],
      [
        "Ġm",
        "ight"
      ],
      [
        "yl",
        "ation"
      ],
      [
        "Ġlow",
        "er"
      ],
      [
        "Ġ200",
        "8"
      ],
      [
        "Ġab",
        "out"
      ],
      [
        "Ġinter",
        "actions"
      ],
      [
        "i",
        "als"
      ],
      [
        "Ġr",
        "at"
      ],
      [
        "Ġr",
        "ati"
      ],
      [
        "Ġdis",
        "e"
      ],
      [
        "A",
        "B"
      ],
      [
        "u",
        "ally"
      ],
      [
        "ater",
        "al"
      ],
      [
        "Ġ",
        "err"
      ],
      [
        "m",
        "et"
      ],
      [
        "Ġp",
        "epti"
      ],
      [
        "I",
        "D"
      ],
      [
        "Ġpath",
        "way"
      ],
      [
        "Ġne",
        "ed"
      ],
      [
        "v",
        "ation"
      ],
      [
        "ogen",
        "e"
      ],
      [
        "Ġfe",
        "ature"
      ],
      [
        "ĠR",
        "es"
      ],
      [
        "Ġimag",
        "ing"
      ],
      [
        "Ġfrequenc",
        "y"
      ],
      [
        "b",
        "it"
      ],
      [
        "Ġto",
        "p"
      ],
      [
        "Ġm",
        "y"
      ],
      [
        "ĠQ",
        "u"
      ],
      [
        "Ġhe",
        "ter"
      ],
      [
        "N",
        "s"
      ],
      [
        "ith",
        "m"
      ],
      [
        "Ġexp",
        "os"
      ],
      [
        "ater",
        "ials"
      ],
      [
        "Ġl",
        "ys"
      ],
      [
        "ves",
        "tig"
      ],
      [
        "ĠA",
        "B"
      ],
      [
        "vi",
        "ew"
      ],
      [
        "Ġback",
        "ground"
      ],
      [
        "Ġ2",
        "4"
      ],
      [
        "Ġconf",
        "irm"
      ],
      [
        "Ġpan",
        "el"
      ],
      [
        "Ġgene",
        "tic"
      ],
      [
        "Ġtri",
        "als"
      ],
      [
        "Ġcir",
        "c"
      ],
      [
        "Ġl",
        "arg"
      ],
      [
        "et",
        "s"
      ],
      [
        "Ġform",
        "ation"
      ],
      [
        "Ġt",
        "ypes"
      ],
      [
        "Ġdifferen",
        "ce"
      ],
      [
        "ir",
        "on"
      ],
      [
        "Ġpro",
        "f"
      ],
      [
        "P",
        "CR"
      ],
      [
        "b",
        "ers"
      ],
      [
        "ĠAnti",
        "body"
      ],
      [
        "Ġincub",
        "ated"
      ],
      [
        "ur",
        "ation"
      ],
      [
        "Ġexpress",
        "ing"
      ],
      [
        "Ġmo",
        "ve"
      ],
      [
        "Ġman",
        "y"
      ],
      [
        "Ġpresent",
        "ed"
      ],
      [
        "hib",
        "ition"
      ],
      [
        "Ġm",
        "ax"
      ],
      [
        "ex",
        "p"
      ],
      [
        "ĠO",
        "ur"
      ],
      [
        "Ġpartic",
        "ip"
      ],
      [
        "Ġne",
        "g"
      ],
      [
        "aj",
        "or"
      ],
      [
        "in",
        "o"
      ],
      [
        "Ġs",
        "l"
      ],
      [
        "8",
        "8"
      ],
      [
        "Ġare",
        "a"
      ],
      [
        "Ġin",
        "vestig"
      ],
      [
        "3",
        "3"
      ],
      [
        "Ġtre",
        "ated"
      ],
      [
        "Ġabs",
        "ence"
      ],
      [
        "ĠÎ¼",
        "m"
      ],
      [
        "Ġin",
        "put"
      ],
      [
        "Ġfollow",
        "ed"
      ],
      [
        "i",
        "od"
      ],
      [
        "och",
        "ond"
      ],
      [
        "at",
        "in"
      ],
      [
        "Ġ2",
        "5"
      ],
      [
        "ec",
        "tive"
      ],
      [
        "Ġrep",
        "e"
      ],
      [
        "is",
        "ed"
      ],
      [
        "is",
        "her"
      ],
      [
        "Ġse",
        "ver"
      ],
      [
        "Ġ",
        "\""
      ],
      [
        "te",
        "gr"
      ],
      [
        "C",
        "A"
      ],
      [
        "Ġg",
        "iven"
      ],
      [
        "Ġtiss",
        "ue"
      ],
      [
        "per",
        "ature"
      ],
      [
        "Ġin",
        "tr"
      ],
      [
        "Ġaddition",
        "al"
      ],
      [
        "Ġcorresp",
        "onding"
      ],
      [
        "C",
        "D"
      ],
      [
        "Ġparamet",
        "ers"
      ],
      [
        "ri",
        "or"
      ],
      [
        "ĠB",
        "i"
      ],
      [
        "Ġst",
        "ep"
      ],
      [
        "ochond",
        "ri"
      ],
      [
        "Ġstr",
        "ain"
      ],
      [
        "gor",
        "ithm"
      ],
      [
        "Ġmic",
        "roscop"
      ],
      [
        "Ġexperiment",
        "al"
      ],
      [
        "Ġdet",
        "ected"
      ],
      [
        "g",
        "ed"
      ],
      [
        "Ġposs",
        "ible"
      ],
      [
        "ig",
        "ma"
      ],
      [
        "Ġevid",
        "ence"
      ],
      [
        "Ġdis",
        "tin"
      ],
      [
        "ĠS",
        "D"
      ],
      [
        "Ġa",
        "ge"
      ],
      [
        "ocyt",
        "es"
      ],
      [
        "Ġ",
        "unc"
      ],
      [
        "Ġmet",
        "abol"
      ],
      [
        "Ġm",
        "ajor"
      ],
      [
        "4",
        "7"
      ],
      [
        "Ġinf",
        "ection"
      ],
      [
        "u",
        "tions"
      ],
      [
        "Ġver",
        "y"
      ],
      [
        "I",
        "n"
      ],
      [
        "Ġstim",
        "ulation"
      ],
      [
        "Ġl",
        "ess"
      ],
      [
        "Ġsequenc",
        "es"
      ],
      [
        "ĠTh",
        "us"
      ],
      [
        "Ġv",
        "iv"
      ],
      [
        "b",
        "l"
      ],
      [
        "Ġgroup",
        "s"
      ],
      [
        "Ġappro",
        "ach"
      ],
      [
        "ell",
        "ular"
      ],
      [
        "Ġex",
        "trac"
      ],
      [
        "Ġpos",
        "itive"
      ],
      [
        "Ġor",
        "ig"
      ],
      [
        "Ġ",
        "*"
      ],
      [
        "Ġpoin",
        "ts"
      ],
      [
        "Ġkn",
        "ock"
      ],
      [
        "Ġfact",
        "ors"
      ],
      [
        "Ġtem",
        "perature"
      ],
      [
        "Ġal",
        "le"
      ],
      [
        "Ġal",
        "gorithm"
      ],
      [
        "6",
        "0"
      ],
      [
        "al",
        "ity"
      ],
      [
        "A",
        "L"
      ],
      [
        "Ġrec",
        "ording"
      ],
      [
        "Ġt",
        "ested"
      ],
      [
        "Ġbec",
        "ause"
      ],
      [
        "Ġ",
        ">"
      ],
      [
        "Ġviv",
        "o"
      ],
      [
        "Ġdat",
        "as"
      ],
      [
        "Ġanti",
        "body"
      ],
      [
        "Ġrecept",
        "or"
      ],
      [
        "Ġg",
        "re"
      ],
      [
        "Ġunder",
        "st"
      ],
      [
        "Ġy",
        "e"
      ],
      [
        "in",
        "ce"
      ],
      [
        "Ġse",
        "g"
      ],
      [
        "Ġkn",
        "own"
      ],
      [
        "ot",
        "t"
      ],
      [
        "Ġm",
        "ed"
      ],
      [
        "tr",
        "ans"
      ],
      [
        "es",
        "is"
      ],
      [
        "Ġsp",
        "ati"
      ],
      [
        "E",
        "R"
      ],
      [
        "ĠK",
        "O"
      ],
      [
        "S",
        "A"
      ],
      [
        "Ġm",
        "id"
      ],
      [
        "Ġal",
        "ong"
      ],
      [
        "Ġquanti",
        "f"
      ],
      [
        "ĠA",
        "fter"
      ],
      [
        "Ġgen",
        "ome"
      ],
      [
        "Ġint",
        "erest"
      ],
      [
        "ĠP",
        "l"
      ],
      [
        "Ġe",
        "arly"
      ],
      [
        "ti",
        "es"
      ],
      [
        "ĠA",
        "N"
      ],
      [
        "SC",
        "s"
      ],
      [
        "oun",
        "t"
      ],
      [
        "ĠN",
        "ot"
      ],
      [
        "Ġfinding",
        "s"
      ],
      [
        "Ġup",
        "on"
      ],
      [
        "Ġd",
        "el"
      ],
      [
        "4",
        "3"
      ],
      [
        "O",
        "X"
      ],
      [
        "Ġle",
        "ar"
      ],
      [
        "Ġd",
        "im"
      ],
      [
        "Ġn",
        "m"
      ],
      [
        "i",
        "ly"
      ],
      [
        "Ġ200",
        "7"
      ],
      [
        "Ġmus",
        "c"
      ],
      [
        "re",
        "ated"
      ],
      [
        "Ġb",
        "ound"
      ],
      [
        "ac",
        "tiv"
      ],
      [
        "Ġhyp",
        "ot"
      ],
      [
        "Ġc",
        "r"
      ],
      [
        "Ġt",
        "um"
      ],
      [
        "ol",
        "ar"
      ],
      [
        "t",
        "ation"
      ],
      [
        "Ġl",
        "ack"
      ],
      [
        "ĠN",
        "a"
      ],
      [
        "Ġmit",
        "ochondri"
      ],
      [
        "rec",
        "tion"
      ],
      [
        "yc",
        "le"
      ],
      [
        "c",
        "om"
      ],
      [
        "ing",
        "ly"
      ],
      [
        "id",
        "s"
      ],
      [
        "B",
        "P"
      ],
      [
        "ĠÂµ",
        "M"
      ],
      [
        "l",
        "ing"
      ],
      [
        "ens",
        "ion"
      ],
      [
        "i",
        "re"
      ],
      [
        "ail",
        "ed"
      ],
      [
        "Ġsever",
        "al"
      ],
      [
        "re",
        "am"
      ],
      [
        "Ġcomp",
        "le"
      ],
      [
        "Ġcorrel",
        "ation"
      ],
      [
        "Ġdynamic",
        "s"
      ],
      [
        "Ġim",
        "age"
      ],
      [
        "7",
        "0"
      ],
      [
        "y",
        "g"
      ],
      [
        "Ġf",
        "em"
      ],
      [
        "Ġb",
        "lue"
      ],
      [
        "ate",
        "g"
      ],
      [
        "Ġpro",
        "j"
      ],
      [
        "Ġresul",
        "t"
      ],
      [
        "Ġprovid",
        "e"
      ],
      [
        "Ġav",
        "ail"
      ],
      [
        "m",
        "l"
      ],
      [
        "ĠSc",
        "ale"
      ],
      [
        "Ġev",
        "en"
      ],
      [
        "Ġen",
        "han"
      ],
      [
        "/",
        "/"
      ],
      [
        "ap",
        "e"
      ],
      [
        ":",
        "//"
      ],
      [
        "ĠG",
        "ene"
      ],
      [
        "Ġne",
        "uro"
      ],
      [
        "Ġe",
        "le"
      ],
      [
        "Ġdistin",
        "ct"
      ],
      [
        "ign",
        "ed"
      ],
      [
        "Ġcomp",
        "ound"
      ],
      [
        "Ġst",
        "aining"
      ],
      [
        "Ġse",
        "e"
      ],
      [
        "L",
        "C"
      ],
      [
        "ĠR",
        "ec"
      ],
      [
        "Ġstimul",
        "us"
      ],
      [
        "Ġex",
        "hibit"
      ],
      [
        "S",
        "T"
      ],
      [
        "Ġc",
        "aus"
      ],
      [
        "w",
        "ays"
      ],
      [
        "Ġsuggest",
        "ing"
      ],
      [
        "Ġm",
        "s"
      ],
      [
        "on",
        "ic"
      ],
      [
        "Ġd",
        "ay"
      ],
      [
        "Ġran",
        "ge"
      ],
      [
        "Ġp",
        "rior"
      ],
      [
        "Ġover",
        "l"
      ],
      [
        "m",
        "it"
      ],
      [
        "ag",
        "n"
      ],
      [
        "Ġelec",
        "tro"
      ],
      [
        "im",
        "um"
      ],
      [
        "Ġs",
        "ym"
      ],
      [
        "Ġpar",
        "t"
      ],
      [
        "Ġpop",
        "ulations"
      ],
      [
        "Ġmut",
        "ation"
      ],
      [
        "t",
        "est"
      ],
      [
        "entif",
        "ic"
      ],
      [
        "I",
        "F"
      ],
      [
        "Ġagain",
        "st"
      ],
      [
        "Ġp",
        "o"
      ],
      [
        "E",
        "P"
      ],
      [
        "ĠR",
        "ep"
      ],
      [
        "ĠS",
        "o"
      ],
      [
        "s",
        "et"
      ],
      [
        "Ġsyn",
        "t"
      ],
      [
        "ati",
        "vely"
      ],
      [
        "Ġper",
        "iod"
      ],
      [
        "E",
        "G"
      ],
      [
        "f",
        "ected"
      ],
      [
        "Ġidentif",
        "y"
      ],
      [
        "Ġb",
        "od"
      ],
      [
        "Ġreveal",
        "ed"
      ],
      [
        "C",
        "re"
      ],
      [
        "Ġpartic",
        "ular"
      ],
      [
        "O",
        "R"
      ],
      [
        "u",
        "k"
      ],
      [
        "ĠM",
        "aterials"
      ],
      [
        "se",
        "quent"
      ],
      [
        "z",
        "ym"
      ],
      [
        "Ġman",
        "us"
      ],
      [
        "h",
        "ip"
      ],
      [
        "at",
        "al"
      ],
      [
        "Ġde",
        "le"
      ],
      [
        "Ġphosph",
        "ory"
      ],
      [
        "Ġ1",
        "6"
      ],
      [
        "OV",
        "A"
      ],
      [
        "m",
        "er"
      ],
      [
        "Ġf",
        "ield"
      ],
      [
        "ĠF",
        "urther"
      ],
      [
        "ib",
        "ility"
      ],
      [
        "v",
        "ere"
      ],
      [
        "ĠC",
        "l"
      ],
      [
        "Ġd",
        "er"
      ],
      [
        "in",
        "duced"
      ],
      [
        "ĠA",
        "t"
      ],
      [
        "Ġsupp",
        "ort"
      ],
      [
        "9",
        "0"
      ],
      [
        "Ġev",
        "olution"
      ],
      [
        "Ġh",
        "tt"
      ],
      [
        "ff",
        "icient"
      ],
      [
        "Ġin",
        "hibition"
      ],
      [
        "Ġrati",
        "o"
      ],
      [
        "ĠH",
        "e"
      ],
      [
        "I",
        "R"
      ],
      [
        "T",
        "A"
      ],
      [
        "ĠP",
        "CR"
      ],
      [
        "os",
        "omes"
      ],
      [
        "n",
        "al"
      ],
      [
        "resh",
        "old"
      ],
      [
        "Ġtr",
        "ac"
      ],
      [
        "g",
        "l"
      ],
      [
        "s",
        "on"
      ],
      [
        "ul",
        "in"
      ],
      [
        "is",
        "c"
      ],
      [
        "ĠA",
        "TP"
      ],
      [
        "Ġac",
        "tive"
      ],
      [
        "Ġmanus",
        "cript"
      ],
      [
        "Ġs",
        "w"
      ],
      [
        "P",
        "C"
      ],
      [
        "Ġad",
        "d"
      ],
      [
        "Ġl",
        "ay"
      ],
      [
        "Ġhe",
        "re"
      ],
      [
        "bod",
        "ies"
      ],
      [
        "og",
        "n"
      ],
      [
        "Ġin",
        "tegr"
      ],
      [
        "Ġor",
        "der"
      ],
      [
        "Ġdise",
        "ase"
      ],
      [
        "Ġ1",
        "3"
      ],
      [
        "ĠQu",
        "anti"
      ],
      [
        "ress",
        "ed"
      ],
      [
        "od",
        "e"
      ],
      [
        "Ġhigh",
        "ly"
      ],
      [
        "ul",
        "ate"
      ],
      [
        "Ġbi",
        "ological"
      ],
      [
        "um",
        "e"
      ],
      [
        "v",
        "iron"
      ],
      [
        "Ġpre",
        "c"
      ],
      [
        "i",
        "pp"
      ],
      [
        "n",
        "t"
      ],
      [
        "Ġm",
        "orph"
      ],
      [
        "Ġres",
        "ist"
      ],
      [
        "Ġgen",
        "ot"
      ],
      [
        "Ġindic",
        "ates"
      ],
      [
        "Ġc",
        "ase"
      ],
      [
        "ĠEx",
        "p"
      ],
      [
        "a",
        "z"
      ],
      [
        "por",
        "al"
      ],
      [
        "Ġdeterm",
        "ine"
      ],
      [
        "Ġpati",
        "ents"
      ],
      [
        "ĠT",
        "able"
      ],
      [
        "Ġmo",
        "tif"
      ],
      [
        "Ġr",
        "ates"
      ],
      [
        "Ġ-",
        "/-"
      ],
      [
        "op",
        "l"
      ],
      [
        "Ġfact",
        "or"
      ],
      [
        "4",
        "4"
      ],
      [
        "ĠP",
        "BS"
      ],
      [
        "Ġin",
        "duced"
      ],
      [
        "is",
        "tic"
      ],
      [
        "Ġcor",
        "tex"
      ],
      [
        "Ġf",
        "ib"
      ],
      [
        "Ġcontrol",
        "s"
      ],
      [
        "ĠSc",
        "i"
      ],
      [
        "Ġb",
        "acter"
      ],
      [
        "Ġth",
        "us"
      ],
      [
        "Ġdef",
        "ined"
      ],
      [
        "Ġdispl",
        "ay"
      ],
      [
        "ro",
        "p"
      ],
      [
        "Ġmechanism",
        "s"
      ],
      [
        "ane",
        "ous"
      ],
      [
        "unc",
        "tions"
      ],
      [
        "Ġcell",
        "ular"
      ],
      [
        "Ġexp",
        "ected"
      ],
      [
        "p",
        "re"
      ],
      [
        "itu",
        "de"
      ],
      [
        "Ġf",
        "ull"
      ],
      [
        "ot",
        "her"
      ],
      [
        "Ġl",
        "ig"
      ],
      [
        "Ġdis",
        "s"
      ],
      [
        "Ġcomparis",
        "on"
      ],
      [
        "Ġ200",
        "6"
      ],
      [
        "Ġh",
        "ist"
      ],
      [
        "p",
        "a"
      ],
      [
        "tr",
        "ic"
      ],
      [
        "ĠS",
        "T"
      ],
      [
        "k",
        "e"
      ],
      [
        "ys",
        "i"
      ],
      [
        "Ġad",
        "ap"
      ],
      [
        "Ġv",
        "itro"
      ],
      [
        "ub",
        "le"
      ],
      [
        "ab",
        "il"
      ],
      [
        "Ġpro",
        "te"
      ],
      [
        "Ġresid",
        "ues"
      ],
      [
        "Ġad",
        "ded"
      ],
      [
        "ab",
        "l"
      ],
      [
        "ver",
        "se"
      ],
      [
        "Ġpro",
        "per"
      ],
      [
        "Ġc",
        "ycle"
      ],
      [
        "Ġneur",
        "on"
      ],
      [
        "Ġfr",
        "action"
      ],
      [
        "c",
        "y"
      ],
      [
        "ott",
        "om"
      ],
      [
        "Ġmedi",
        "um"
      ],
      [
        "Ġerr",
        "or"
      ],
      [
        "e",
        "f"
      ],
      [
        "Ġf",
        "low"
      ],
      [
        "Ġhe",
        "l"
      ],
      [
        "I",
        "V"
      ],
      [
        "Ġm",
        "m"
      ],
      [
        "Ġreplic",
        "ates"
      ],
      [
        "v",
        "ant"
      ],
      [
        "Ġl",
        "ink"
      ],
      [
        "el",
        "ine"
      ],
      [
        "is",
        "k"
      ],
      [
        "Ġth",
        "reshold"
      ],
      [
        "Ġdirect",
        "ly"
      ],
      [
        "Ġph",
        "ot"
      ],
      [
        "st",
        "ream"
      ],
      [
        "l",
        "ike"
      ],
      [
        "Ġnormal",
        "ized"
      ],
      [
        "Ġstructure",
        "s"
      ],
      [
        "p",
        "ort"
      ],
      [
        "Ġsu",
        "m"
      ],
      [
        "medi",
        "ated"
      ],
      [
        "Ġinf",
        "lu"
      ],
      [
        "Ġd",
        "end"
      ],
      [
        "Ġex",
        "tr"
      ],
      [
        "Ġprim",
        "ary"
      ],
      [
        "c",
        "o"
      ],
      [
        "ĠI",
        "I"
      ],
      [
        "b",
        "e"
      ],
      [
        "ĠWh",
        "ile"
      ],
      [
        "Ġs",
        "ol"
      ],
      [
        "Ġmolec",
        "ular"
      ],
      [
        "Ġ",
        "ri"
      ],
      [
        "Ġs",
        "olution"
      ],
      [
        "I",
        "C"
      ],
      [
        "Ġneg",
        "ative"
      ],
      [
        "ĠP",
        "h"
      ],
      [
        "Ġwe",
        "ek"
      ],
      [
        "Ġd",
        "il"
      ],
      [
        "Ġsign",
        "als"
      ],
      [
        "D",
        "NA"
      ],
      [
        "l",
        "ied"
      ],
      [
        "ĠAN",
        "OVA"
      ],
      [
        "ĠC",
        "on"
      ],
      [
        "i",
        "tions"
      ],
      [
        "Ġ1",
        "4"
      ],
      [
        "Ġcle",
        "ar"
      ],
      [
        "6",
        "3"
      ],
      [
        "Ġ",
        "u"
      ],
      [
        "ĠN",
        "e"
      ],
      [
        "Ġo",
        "x"
      ],
      [
        "Ġac",
        "qu"
      ],
      [
        "Ġ",
        "est"
      ],
      [
        "Ġchann",
        "el"
      ],
      [
        "Ġrec",
        "ent"
      ],
      [
        "Ġacc",
        "ording"
      ],
      [
        "Ġinclu",
        "ded"
      ],
      [
        "Ġen",
        "viron"
      ],
      [
        "Ġneur",
        "onal"
      ],
      [
        "ag",
        "en"
      ],
      [
        "o",
        "z"
      ],
      [
        "ab",
        "bit"
      ],
      [
        "ow",
        "er"
      ],
      [
        "in",
        "ally"
      ],
      [
        "Ġpattern",
        "s"
      ],
      [
        "Î",
        "Ķ"
      ],
      [
        "Ġm",
        "otor"
      ],
      [
        "Ġref",
        "lec"
      ],
      [
        "Ġthere",
        "fore"
      ],
      [
        "Ġp",
        "ub"
      ],
      [
        "Ġo",
        "l"
      ],
      [
        "Ġvi",
        "ew"
      ],
      [
        "Ġvari",
        "ants"
      ],
      [
        "Ġrel",
        "ated"
      ],
      [
        "M",
        "D"
      ],
      [
        "Ġl",
        "it"
      ],
      [
        "am",
        "e"
      ],
      [
        "Ġ200",
        "5"
      ],
      [
        "Ġran",
        "dom"
      ],
      [
        "Ġgener",
        "al"
      ],
      [
        "Ġavail",
        "able"
      ],
      [
        "ex",
        "t"
      ],
      [
        "Ġas",
        "semb"
      ],
      [
        "app",
        "ing"
      ],
      [
        "p",
        "an"
      ],
      [
        "on",
        "es"
      ],
      [
        "t",
        "ered"
      ],
      [
        "f",
        "l"
      ],
      [
        "Ġcons",
        "er"
      ],
      [
        "ĠS",
        "h"
      ],
      [
        "Ġbe",
        "ing"
      ],
      [
        "as",
        "ing"
      ],
      [
        "Ġlear",
        "ning"
      ],
      [
        "o",
        "ti"
      ],
      [
        "Ġre",
        "ad"
      ],
      [
        "Ġcon",
        "tex"
      ],
      [
        "Ġbel",
        "ow"
      ],
      [
        "ol",
        "s"
      ],
      [
        "â",
        "Ī"
      ],
      [
        "Ġcluster",
        "s"
      ],
      [
        "Ġdist",
        "ance"
      ],
      [
        "Ġacc",
        "um"
      ],
      [
        "reg",
        "ulated"
      ],
      [
        "Ġrepor",
        "ter"
      ],
      [
        "ombin",
        "ant"
      ],
      [
        "Ġwh",
        "ole"
      ],
      [
        "Ġanti",
        "bodies"
      ],
      [
        "Ġ",
        "ed"
      ],
      [
        "5",
        "7"
      ],
      [
        "f",
        "act"
      ],
      [
        "Ġam",
        "ino"
      ],
      [
        "ul",
        "ts"
      ],
      [
        "Ġsu",
        "per"
      ],
      [
        "Ġt",
        "ub"
      ],
      [
        "T",
        "R"
      ],
      [
        "ĠC",
        "hemical"
      ],
      [
        "am",
        "in"
      ],
      [
        "Ġfe",
        "ed"
      ],
      [
        "Ġad",
        "j"
      ],
      [
        "Ġbod",
        "y"
      ],
      [
        "Ġdifferenti",
        "ation"
      ],
      [
        "u",
        "als"
      ],
      [
        "t",
        "ag"
      ],
      [
        "Ġl",
        "og"
      ],
      [
        "C",
        "G"
      ],
      [
        "Ġsubs",
        "tr"
      ],
      [
        "I",
        "S"
      ],
      [
        "Ġam",
        "ong"
      ],
      [
        "Ġcollec",
        "ted"
      ],
      [
        "al",
        "th"
      ],
      [
        "Ġthe",
        "m"
      ],
      [
        "as",
        "tic"
      ],
      [
        "Ġsequenc",
        "ing"
      ],
      [
        "Ġev",
        "ents"
      ],
      [
        "ĠS",
        "im"
      ],
      [
        "ĠG",
        "en"
      ],
      [
        "it",
        "ation"
      ],
      [
        "ĠÎ¼",
        "M"
      ],
      [
        "ĠSci",
        "entific"
      ],
      [
        "Ġ1",
        "1"
      ],
      [
        "g",
        "ether"
      ],
      [
        "Ġto",
        "gether"
      ],
      [
        "t",
        "reated"
      ],
      [
        "her",
        "ry"
      ],
      [
        "Ġconcentr",
        "ations"
      ],
      [
        "ĠO",
        "n"
      ],
      [
        "ric",
        "hed"
      ],
      [
        "r",
        "a"
      ],
      [
        "Ġsub",
        "un"
      ],
      [
        "Ġpro",
        "l"
      ],
      [
        "l",
        "ab"
      ],
      [
        "4",
        "6"
      ],
      [
        "t",
        "ub"
      ],
      [
        "Ġspati",
        "al"
      ],
      [
        "ĠP",
        "M"
      ],
      [
        "Ġtrans",
        "fer"
      ],
      [
        "Ġreg",
        "ulation"
      ],
      [
        "d",
        "own"
      ],
      [
        "ĠRep",
        "resent"
      ],
      [
        "C",
        "S"
      ],
      [
        "Ġstr",
        "ains"
      ],
      [
        "Ġm",
        "ac"
      ],
      [
        "Ġtranscri",
        "pt"
      ],
      [
        "Ġfeature",
        "s"
      ],
      [
        "Ġch",
        "o"
      ],
      [
        "Ġcom",
        "bin"
      ],
      [
        "ĠSo",
        "ftware"
      ],
      [
        "if",
        "y"
      ],
      [
        "Ġf",
        "am"
      ],
      [
        "Ġcom",
        "mon"
      ],
      [
        "Ġsugg",
        "ests"
      ],
      [
        "Ġwhere",
        "as"
      ],
      [
        ")",
        ";"
      ],
      [
        "Ġ3",
        "7"
      ],
      [
        "Ġa",
        "p"
      ],
      [
        "Ġresul",
        "ting"
      ],
      [
        "Ġwas",
        "hed"
      ],
      [
        "rec",
        "ted"
      ],
      [
        "iss",
        "ion"
      ],
      [
        "E",
        "S"
      ],
      [
        "Ġiniti",
        "al"
      ],
      [
        "Ġre",
        "view"
      ],
      [
        "ations",
        "hip"
      ],
      [
        "Ġsh",
        "ort"
      ],
      [
        "an",
        "n"
      ],
      [
        "v",
        "ent"
      ],
      [
        "as",
        "c"
      ],
      [
        "and",
        "s"
      ],
      [
        "it",
        "or"
      ],
      [
        "Ġst",
        "age"
      ],
      [
        "Ġcar",
        "di"
      ],
      [
        "Ġ",
        "ill"
      ],
      [
        "Ġa",
        "gg"
      ],
      [
        "vers",
        "ity"
      ],
      [
        "Ġacc",
        "ess"
      ],
      [
        "Ġb",
        "et"
      ],
      [
        "uss",
        "ion"
      ],
      [
        "x",
        "t"
      ],
      [
        "Ġre",
        "ference"
      ],
      [
        "Ġ",
        "q"
      ],
      [
        "ogen",
        "ous"
      ],
      [
        "ĠM",
        "ore"
      ],
      [
        "B",
        "D"
      ],
      [
        "3",
        "6"
      ],
      [
        "Ġ",
        "ent"
      ],
      [
        "Ġen",
        "zym"
      ],
      [
        "oph",
        "il"
      ],
      [
        "s",
        "h"
      ],
      [
        "Ġf",
        "ive"
      ],
      [
        "ys",
        "is"
      ],
      [
        "Ġto",
        "ward"
      ],
      [
        "ĠF",
        "isher"
      ],
      [
        "g",
        "er"
      ],
      [
        "ĠRepresent",
        "ative"
      ],
      [
        "ĠE",
        "n"
      ],
      [
        "a",
        "ir"
      ],
      [
        "Ġad",
        "ult"
      ],
      [
        "Ġselec",
        "ted"
      ],
      [
        "G",
        "F"
      ],
      [
        "Ġar",
        "row"
      ],
      [
        "ĠC",
        "ol"
      ],
      [
        "Ġ4",
        "0"
      ],
      [
        "m",
        "in"
      ],
      [
        "al",
        "u"
      ],
      [
        "el",
        "f"
      ],
      [
        "Ġsub",
        "sequent"
      ],
      [
        "oc",
        "us"
      ],
      [
        "Ġcor",
        "tical"
      ],
      [
        "4",
        "8"
      ],
      [
        "I",
        "N"
      ],
      [
        "Ġwh",
        "at"
      ],
      [
        "Ġstr",
        "ateg"
      ],
      [
        "Ġest",
        "abl"
      ],
      [
        "ĠC",
        "o"
      ],
      [
        "t",
        "a"
      ],
      [
        "%",
        ")"
      ],
      [
        "um",
        "n"
      ],
      [
        "til",
        "l"
      ],
      [
        "Ġbl",
        "ood"
      ],
      [
        "Ġvir",
        "us"
      ],
      [
        "b",
        "i"
      ],
      [
        "Ġphenot",
        "ype"
      ],
      [
        "Ġpath",
        "ways"
      ],
      [
        "Ġk",
        "it"
      ],
      [
        "ak",
        "en"
      ],
      [
        "pl",
        "ing"
      ],
      [
        "Ġrel",
        "ationship"
      ],
      [
        "es",
        "tern"
      ],
      [
        "ĠS",
        "tr"
      ],
      [
        "ĠS",
        "EM"
      ],
      [
        "Ġpro",
        "duc"
      ],
      [
        "og",
        "raph"
      ],
      [
        "Ġde",
        "pend"
      ],
      [
        "l",
        "l"
      ],
      [
        "iz",
        "ing"
      ],
      [
        "3",
        "5"
      ],
      [
        "or",
        "ded"
      ],
      [
        "Ġrepresent",
        "s"
      ],
      [
        "oc",
        "y"
      ],
      [
        "Ġline",
        "ar"
      ],
      [
        "O",
        "S"
      ],
      [
        "Ġof",
        "f"
      ],
      [
        "Ġstatis",
        "tical"
      ],
      [
        "Ġpro",
        "por"
      ],
      [
        "ress",
        "ing"
      ],
      [
        "3",
        "8"
      ],
      [
        "ĠI",
        "L"
      ],
      [
        "C",
        "herry"
      ],
      [
        "Ġf",
        "ac"
      ],
      [
        "Ġev",
        "alu"
      ],
      [
        "Ġrecept",
        "ors"
      ],
      [
        "Ġper",
        "cent"
      ],
      [
        "op",
        "s"
      ],
      [
        "Ġdecre",
        "ased"
      ],
      [
        "et",
        "h"
      ],
      [
        "Ġk",
        "ey"
      ],
      [
        "ĠE",
        "R"
      ],
      [
        "Ġchann",
        "els"
      ],
      [
        "c",
        "on"
      ],
      [
        "ĠS",
        "ch"
      ],
      [
        "Ġpro",
        "gen"
      ],
      [
        "e",
        "ed"
      ],
      [
        "Ġinv",
        "olved"
      ],
      [
        "b",
        "or"
      ],
      [
        "ĠI",
        "f"
      ],
      [
        "Ġst",
        "ates"
      ],
      [
        "or",
        "ted"
      ],
      [
        "Ġdom",
        "ains"
      ],
      [
        "f",
        "old"
      ],
      [
        "Ġf",
        "ixed"
      ],
      [
        "Ġ200",
        "4"
      ],
      [
        "m",
        "ore"
      ],
      [
        "Ġindivid",
        "uals"
      ],
      [
        "Ġh",
        "yd"
      ],
      [
        "ag",
        "ed"
      ],
      [
        "Ġtr",
        "ack"
      ],
      [
        "Ġparticip",
        "ants"
      ],
      [
        "9",
        "9"
      ],
      [
        "Ġop",
        "en"
      ],
      [
        "ĠI",
        "F"
      ],
      [
        "Ġare",
        "as"
      ],
      [
        "Ġst",
        "ar"
      ],
      [
        "Ġf",
        "igure"
      ],
      [
        "Ġprob",
        "ability"
      ],
      [
        "Ġm",
        "ale"
      ],
      [
        "Ġass",
        "ays"
      ],
      [
        "Ġso",
        "ftware"
      ],
      [
        "Ġr",
        "un"
      ],
      [
        "Ġapp",
        "lied"
      ],
      [
        "Ġprovid",
        "ed"
      ],
      [
        "Ġindic",
        "ating"
      ],
      [
        "l",
        "o"
      ],
      [
        "ĠA",
        "c"
      ],
      [
        "Ġbl",
        "ot"
      ],
      [
        "if",
        "t"
      ],
      [
        "ĠH",
        "ere"
      ],
      [
        "Ġf",
        "unctions"
      ],
      [
        "ĠM",
        "e"
      ],
      [
        "Ġn",
        "ec"
      ],
      [
        "3",
        "7"
      ],
      [
        "3",
        "4"
      ],
      [
        "ac",
        "ed"
      ],
      [
        "Ġrec",
        "ru"
      ],
      [
        "Ġimp",
        "ro"
      ],
      [
        "Ġ",
        ":"
      ],
      [
        "ver",
        "y"
      ],
      [
        "Ġrec",
        "orded"
      ],
      [
        "Ġpredic",
        "ted"
      ],
      [
        "Ġval",
        "id"
      ],
      [
        "ĠH",
        "z"
      ],
      [
        "/",
        "+"
      ],
      [
        "Ġpromot",
        "er"
      ],
      [
        "M",
        "T"
      ],
      [
        "9",
        "5"
      ],
      [
        "ĠE",
        "ach"
      ],
      [
        "i",
        "RNA"
      ],
      [
        "Ġm",
        "ass"
      ],
      [
        "Ġmeasure",
        "ments"
      ],
      [
        "Ġab",
        "und"
      ],
      [
        "y",
        "e"
      ],
      [
        "iz",
        "es"
      ],
      [
        "ĠCell",
        "s"
      ],
      [
        "Ġlabel",
        "ed"
      ],
      [
        "Ġresist",
        "ance"
      ],
      [
        "ri",
        "ent"
      ],
      [
        "Ġd",
        "en"
      ],
      [
        "Ġexpos",
        "ure"
      ],
      [
        "ter",
        "s"
      ],
      [
        "Ġm",
        "g"
      ],
      [
        "Ġ1",
        "8"
      ],
      [
        "ĠP",
        "ar"
      ],
      [
        "rich",
        "ment"
      ],
      [
        "Ġrep",
        "ro"
      ],
      [
        "Ġst",
        "ress"
      ],
      [
        "a",
        "ve"
      ],
      [
        "Ġgr",
        "ad"
      ],
      [
        "T",
        "he"
      ],
      [
        "Ġv",
        "ent"
      ],
      [
        "tic",
        "ally"
      ],
      [
        "Ġdif",
        "f"
      ],
      [
        "ogen",
        "esis"
      ],
      [
        "Ġsec",
        "tions"
      ],
      [
        "Ġlip",
        "id"
      ],
      [
        "i",
        "i"
      ],
      [
        "Ġcontex",
        "t"
      ],
      [
        "a",
        "u"
      ],
      [
        "Ġsu",
        "c"
      ],
      [
        "oc",
        "l"
      ],
      [
        "Ġg",
        "reen"
      ],
      [
        "Ġfir",
        "ing"
      ],
      [
        "ly",
        "ing"
      ],
      [
        "Ġnucle",
        "ar"
      ],
      [
        "Ġp",
        "r"
      ],
      [
        "Ġf",
        "inal"
      ],
      [
        "Ġb",
        "ro"
      ],
      [
        "Ġg",
        "ly"
      ],
      [
        "y",
        "r"
      ],
      [
        "Ġpepti",
        "de"
      ],
      [
        "un",
        "g"
      ],
      [
        "om",
        "er"
      ],
      [
        "Ġvol",
        "ume"
      ],
      [
        "Ġprof",
        "il"
      ],
      [
        "Ġphosphory",
        "lation"
      ],
      [
        "Ġs",
        "till"
      ],
      [
        "de",
        "ed"
      ],
      [
        "us",
        "tr"
      ],
      [
        "f",
        "or"
      ],
      [
        "Ġre",
        "duction"
      ],
      [
        "Ġmitochondri",
        "al"
      ],
      [
        "a",
        "ff"
      ],
      [
        "Ġrat",
        "her"
      ],
      [
        "Ġnum",
        "bers"
      ],
      [
        "000",
        "1"
      ],
      [
        "ĠD",
        "e"
      ],
      [
        "Ġcon",
        "st"
      ],
      [
        "H",
        "A"
      ],
      [
        "Ġdecre",
        "ase"
      ],
      [
        "Ġm",
        "ade"
      ],
      [
        "Ġro",
        "b"
      ],
      [
        "Ġno",
        "vel"
      ],
      [
        "Ġtri",
        "al"
      ],
      [
        "E",
        "C"
      ],
      [
        "Ġrec",
        "ons"
      ],
      [
        "Ġt",
        "echn"
      ],
      [
        "Ġp",
        "ower"
      ],
      [
        "ir",
        "d"
      ],
      [
        "Ġconsid",
        "ered"
      ],
      [
        "Ġpro",
        "duction"
      ],
      [
        "Ġcont",
        "in"
      ],
      [
        "Ġim",
        "plic"
      ],
      [
        "Ġmusc",
        "le"
      ],
      [
        "Ġtem",
        "poral"
      ],
      [
        "ob",
        "l"
      ],
      [
        "ĠP",
        "D"
      ],
      [
        "F",
        "s"
      ],
      [
        "ĠR",
        "T"
      ],
      [
        "Ġs",
        "ide"
      ],
      [
        "Ġcon",
        "duc"
      ],
      [
        "Ġaff",
        "ect"
      ],
      [
        "Ġprot",
        "oc"
      ],
      [
        "opl",
        "asm"
      ],
      [
        "ac",
        "ts"
      ],
      [
        "C",
        "h"
      ],
      [
        "p",
        "ts"
      ],
      [
        "Ġacc",
        "ur"
      ],
      [
        "as",
        "ter"
      ],
      [
        "Ġf",
        "ree"
      ],
      [
        "Ġsyn",
        "aptic"
      ],
      [
        "L",
        "A"
      ],
      [
        "Ġdet",
        "ect"
      ],
      [
        "Ġanim",
        "al"
      ],
      [
        "x",
        "p"
      ],
      [
        "Ġhtt",
        "ps"
      ],
      [
        "g",
        "reen"
      ],
      [
        "Ġon",
        "set"
      ],
      [
        "Ġv",
        "ector"
      ],
      [
        "rel",
        "ated"
      ],
      [
        "yc",
        "in"
      ],
      [
        "M",
        "C"
      ],
      [
        "Ġm",
        "uch"
      ],
      [
        "Ġh",
        "owever"
      ],
      [
        "ĠS",
        "N"
      ],
      [
        "Ġcl",
        "os"
      ],
      [
        "ĠB",
        "r"
      ],
      [
        "o",
        "tic"
      ],
      [
        "F",
        "C"
      ],
      [
        "Ġde",
        "ple"
      ],
      [
        "t",
        "on"
      ],
      [
        "im",
        "al"
      ],
      [
        "D",
        "R"
      ],
      [
        "Ġgener",
        "ate"
      ],
      [
        "ĠIn",
        "s"
      ],
      [
        "g",
        "o"
      ],
      [
        "an",
        "ding"
      ],
      [
        "ĠC",
        "C"
      ],
      [
        "ad",
        "y"
      ],
      [
        "2",
        "00"
      ],
      [
        "ant",
        "ly"
      ],
      [
        "Ġmove",
        "ment"
      ],
      [
        "op",
        "e"
      ],
      [
        "Ġcorresp",
        "ond"
      ],
      [
        "Ġdet",
        "ail"
      ],
      [
        "Ġselec",
        "tion"
      ],
      [
        "ut",
        "am"
      ],
      [
        "Ġenviron",
        "ment"
      ],
      [
        "Ġfor",
        "ce"
      ],
      [
        "Ġhigh",
        "l"
      ],
      [
        "6",
        "8"
      ],
      [
        "Ġm",
        "agn"
      ],
      [
        "ĠQuanti",
        "fication"
      ],
      [
        "tur",
        "al"
      ],
      [
        "Ġr",
        "ap"
      ],
      [
        "Ġc",
        "ri"
      ],
      [
        "Ġpl",
        "ots"
      ],
      [
        "Ġs",
        "om"
      ],
      [
        "Ġob",
        "j"
      ],
      [
        "Ġvers",
        "us"
      ],
      [
        "Ġisol",
        "ated"
      ],
      [
        "ak",
        "ing"
      ],
      [
        "ĠR",
        "P"
      ],
      [
        "g",
        "ans"
      ],
      [
        "Ġne",
        "xt"
      ],
      [
        "pt",
        "om"
      ],
      [
        "as",
        "ts"
      ],
      [
        "4",
        "2"
      ],
      [
        "Ġres",
        "olution"
      ],
      [
        "Ġen",
        "riched"
      ],
      [
        "ĠA",
        "P"
      ],
      [
        "term",
        "inal"
      ],
      [
        "Ġquantif",
        "ied"
      ],
      [
        "an",
        "ces"
      ],
      [
        "b",
        "y"
      ],
      [
        "Ġcompon",
        "ents"
      ],
      [
        "C",
        "o"
      ],
      [
        "Ġf",
        "usion"
      ],
      [
        "Ġh",
        "al"
      ],
      [
        "Ġcol",
        "umn"
      ],
      [
        "b",
        "lue"
      ],
      [
        "om",
        "al"
      ],
      [
        "ĠC",
        "A"
      ],
      [
        "ĠFurther",
        "more"
      ],
      [
        "Ġm",
        "ap"
      ],
      [
        "Ġf",
        "ocus"
      ],
      [
        "Ġ20",
        "21"
      ],
      [
        "iqu",
        "e"
      ],
      [
        "6",
        "7"
      ],
      [
        "c",
        "hes"
      ],
      [
        "Ġs",
        "ection"
      ],
      [
        "ĠAl",
        "though"
      ],
      [
        "Ġl",
        "at"
      ],
      [
        "1",
        "000"
      ],
      [
        "w",
        "w"
      ],
      [
        "Ġc",
        "ases"
      ],
      [
        "Ġmark",
        "er"
      ],
      [
        "Ġb",
        "ox"
      ],
      [
        "3",
        "9"
      ],
      [
        "Ġb",
        "ind"
      ],
      [
        "Ġprol",
        "if"
      ],
      [
        "Ġover",
        "all"
      ],
      [
        "at",
        "ur"
      ],
      [
        "ĠD",
        "ros"
      ],
      [
        "Ġprocess",
        "es"
      ],
      [
        "4",
        "9"
      ],
      [
        "Ġ",
        "ess"
      ],
      [
        "ĠL",
        "i"
      ],
      [
        "Ġse",
        "em"
      ],
      [
        "i",
        "tivity"
      ],
      [
        "Ġexam",
        "ined"
      ],
      [
        "Ġplasm",
        "id"
      ],
      [
        "ĠT",
        "rans"
      ],
      [
        "Ġsim",
        "ulations"
      ],
      [
        "Ġperform",
        "ance"
      ],
      [
        "w",
        "ise"
      ],
      [
        "Ġac",
        "tin"
      ],
      [
        "Ġst",
        "ained"
      ],
      [
        "Ġmark",
        "ers"
      ],
      [
        "lu",
        "or"
      ],
      [
        "Ġhe",
        "m"
      ],
      [
        "Ġac",
        "t"
      ],
      [
        "Ġs",
        "low"
      ],
      [
        "ar",
        "ies"
      ],
      [
        "oin",
        "t"
      ],
      [
        "ont",
        "rol"
      ],
      [
        "Ġsu",
        "fficient"
      ],
      [
        "Ġk",
        "in"
      ],
      [
        "pl",
        "ed"
      ],
      [
        "uc",
        "ose"
      ],
      [
        "Ġlarg",
        "er"
      ],
      [
        "Ġtum",
        "or"
      ],
      [
        "Ġf",
        "ew"
      ],
      [
        "ophil",
        "a"
      ],
      [
        "erg",
        "y"
      ],
      [
        "ĠThere",
        "fore"
      ],
      [
        "Ġh",
        "ar"
      ],
      [
        "Ġcon",
        "cl"
      ],
      [
        "Ġtarget",
        "s"
      ],
      [
        "Ġ200",
        "3"
      ],
      [
        "Ġ6",
        "0"
      ],
      [
        "Ġcol",
        "i"
      ],
      [
        "Ġcol",
        "on"
      ],
      [
        "Ġchrom",
        "atin"
      ],
      [
        "Ġw",
        "ater"
      ],
      [
        "ro",
        "up"
      ],
      [
        "F",
        "A"
      ],
      [
        "Ġen",
        "richment"
      ],
      [
        "Ġconser",
        "ved"
      ],
      [
        "ĠA",
        "T"
      ],
      [
        "an",
        "k"
      ],
      [
        "Ġpot",
        "enti"
      ],
      [
        "Ġbas",
        "eline"
      ],
      [
        "Ġstimul",
        "i"
      ],
      [
        "Ġd",
        "ors"
      ],
      [
        "Ġne",
        "ut"
      ],
      [
        "Ġqu",
        "es"
      ],
      [
        "ĠS",
        "igma"
      ],
      [
        "ĠT",
        "M"
      ],
      [
        "ig",
        "r"
      ],
      [
        "Ġep",
        "it"
      ],
      [
        "ĠDros",
        "ophila"
      ],
      [
        "Ġrele",
        "ase"
      ],
      [
        "Ġâ",
        "ī"
      ],
      [
        "Ġincre",
        "ases"
      ],
      [
        "ac",
        "c"
      ],
      [
        "Ġbehavior",
        "al"
      ],
      [
        "r",
        "up"
      ],
      [
        "ad",
        "ed"
      ],
      [
        "c",
        "k"
      ],
      [
        "ĠP",
        "C"
      ],
      [
        "Ġde",
        "vi"
[...]
